<unk>	0
<s>	0
</s>	0
▁t	-0
he	-1
▁a	-2
in	-3
▁the	-4
▁o	-5
re	-6
▁w	-7
nd	-8
er	-9
▁s	-10
is	-11
at	-12
on	-13
▁c	-14
▁of	-15
it	-16
en	-17
▁b	-18
an	-19
▁p	-20
ed	-21
ar	-22
es	-23
▁f	-24
al	-25
▁in	-26
or	-27
▁m	-28
ou	-29
▁and	-30
▁to	-31
ing	-32
▁,	-33
as	-34
▁.	-35
▁h	-36
▁d	-37
ion	-38
ic	-39
▁th	-40
le	-41
om	-42
ent	-43
▁I	-44
▁n	-45
▁T	-46
▁l	-47
▁is	-48
▁e	-49
▁be	-50
il	-51
▁g	-52
st	-53
▁re	-54
ve	-55
ct	-56
ut	-57
▁A	-58
ro	-59
im	-60
ad	-61
ly	-62
▁S	-63
am	-64
se	-65
ot	-66
▁on	-67
id	-68
ur	-69
ver	-70
ay	-71
▁The	-72
ce	-73
et	-74
ow	-75
▁for	-76
▁that	-77
▁wh	-78
ol	-79
ir	-80
▁it	-81
ation	-82
▁u	-83
▁y	-84
▁was	-85
▁he	-86
ig	-87
▁st	-88
▁B	-89
ch	-90
▁C	-91
▁M	-92
▁we	-93
ter	-94
ul	-95
ith	-96
ra	-97
▁as	-98
▁are	-99
▁al	-100
▁H	-101
▁an	-102
▁with	-103
ld	-104
her	-105
▁P	-106
if	-107
▁or	-108
▁con	-109
▁1	-110
od	-111
and	-112
▁de	-113
ri	-114
ak	-115
▁you	-116
ab	-117
ment	-118
ge	-119
▁by	-120
▁this	-121
▁-	-122
th	-123
ill	-124
ist	-125
▁pro	-126
op	-127
rom	-128
ate	-129
res	-130
ers	-131
▁not	-132
▁se	-133
▁ha	-134
pe	-135
▁com	-136
ain	-137
▁v	-138
ich	-139
us	-140
▁r	-141
ore	-142
▁Ind	-143
um	-144
▁at	-145
▁k	-146
▁from	-147
ess	-148
▁ex	-149
em	-150
art	-151
▁which	-152
▁R	-153
ity	-154
▁G	-155
▁W	-156
est	-157
▁su	-158
▁his	-159
ant	-160
el	-161
▁D	-162
▁Indi	-163
iv	-164
os	-165
▁'	-166
ht	-167
ac	-168
▁have	-169
ind	-170
nt	-171
▁wor	-172
ies	-173
our	-174
▁ne	-175
ive	-176
▁N	-177
▁ch	-178
un	-179
▁sh	-180
all	-181
ort	-182
pp	-183
ure	-184
ci	-185
qu	-186
RB	-187
▁has	-188
ould	-189
▁can	-190
▁le	-191
▁In	-192
ther	-193
ag	-194
▁K	-195
ust	-196
ome	-197
ous	-198
▁go	-199
ere	-200
ud	-201
▁E	-202
ap	-203
▁ab	-204
▁Th	-205
▁pl	-206
ik	-207
ong	-208
▁all	-209
▁so	-210
ally	-211
▁whe	-212
ight	-213
▁they	-214
ction	-215
▁F	-216
▁do	-217
▁L	-218
▁were	-219
00	-220
so	-221
out	-222
ear	-223
ie	-224
ok	-225
▁their	-226
▁one	-227
gh	-228
▁j	-229
rou	-230
ish	-231
ry	-232
au	-233
▁19	-234
ast	-235
ide	-236
ard	-237
ans	-238
▁there	-239
ang	-240
▁India	-241
▁It	-242
▁who	-243
▁int	-244
ame	-245
▁but	-246
ated	-247
▁had	-248
▁im	-249
▁O	-250
▁man	-251
very	-252
ost	-253
ah	-254
▁2	-255
rit	-256
pt	-257
age	-258
ary	-259
▁pe	-260
▁“	-261
hi	-262
▁also	-263
▁me	-264
▁per	-265
▁(	-266
▁other	-267
ime	-268
ru	-269
ll	-270
▁J	-271
ect	-272
ence	-273
cc	-274
▁ad	-275
▁part	-276
▁year	-277
one	-278
▁bec	-279
are	-280
pl	-281
ice	-282
▁And	-283
av	-284
▁them	-285
▁U	-286
ff	-287
▁out	-288
ike	-289
ions	-290
▁us	-291
▁ar	-292
ople	-293
▁lo	-294
ount	-295
ult	-296
▁its	-297
▁will	-298
ical	-299
▁un	-300
ire	-301
ub	-302
▁ag	-303
▁comp	-304
nder	-305
per	-306
ress	-307
ake	-308
ade	-309
▁about	-310
▁ind	-311
▁people	-312
▁en	-313
aj	-314
▁V	-315
▁cont	-316
ach	-317
▁up	-318
▁dis	-319
fter	-320
ance	-321
▁been	-322
▁This	-323
RRB	-324
▁more	-325
LRB	-326
ass	-327
now	-328
ause	-329
vern	-330
ber	-331
▁time	-332
act	-333
▁He	-334
ric	-335
port	-336
▁like	-337
ble	-338
og	-339
ays	-340
ine	-341
▁any	-342
▁te	-343
ial	-344
te	-345
able	-346
ven	-347
▁Ch	-348
▁res	-349
▁cl	-350
ory	-351
ace	-352
▁pol	-353
▁some	-354
ord	-355
ings	-356
ition	-357
▁tw	-358
▁”	-359
ree	-360
▁these	-361
ater	-362
▁only	-363
▁when	-364
▁him	-365
▁work	-366
▁no	-367
▁inc	-368
▁po	-369
▁Hind	-370
▁rel	-371
ep	-372
▁know	-373
▁spe	-374
ack	-375
vernment	-376
ution	-377
vel	-378
ose	-379
du	-380
▁comm	-381
ase	-382
reat	-383
▁under	-384
▁Y	-385
ations	-386
ond	-387
▁tr	-388
aw	-389
iff	-390
li	-391
▁fe	-392
▁Indian	-393
▁two	-394
▁sp	-395
▁But	-396
ell	-397
▁if	-398
ha	-399
▁qu	-400
orm	-401
ild	-402
irst	-403
ious	-404
ue	-405
ign	-406
▁into	-407
▁what	-408
ple	-409
▁over	-410
▁cent	-411
cial	-412
ail	-413
ia	-414
▁world	-415
▁cons	-416
▁years	-417
▁very	-418
▁her	-419
▁count	-420
tern	-421
▁your	-422
hed	-423
▁So	-424
▁diff	-425
▁call	-426
ife	-427
▁off	-428
ck	-429
▁made	-430
▁get	-431
iz	-432
▁:	-433
ces	-434
▁pre	-435
▁would	-436
low	-437
▁ro	-438
▁after	-439
ved	-440
ath	-441
▁dec	-442
▁may	-443
ound	-444
▁than	-445
ng	-446
ood	-447
▁new	-448
▁first	-449
ational	-450
ism	-451
ite	-452
▁many	-453
▁form	-454
▁our	-455
fore	-456
▁my	-457
ourt	-458
▁pr	-459
▁should	-460
har	-461
ens	-462
▁ra	-463
▁act	-464
ink	-465
▁bet	-466
▁mo	-467
row	-468
▁As	-469
▁am	-470
ise	-471
sel	-472
aid	-473
ons	-474
we	-475
stit	-476
▁pos	-477
▁em	-478
▁because	-479
ted	-480
▁sc	-481
ile	-482
▁St	-483
▁most	-484
ates	-485
▁3	-486
red	-487
uring	-488
▁app	-489
ced	-490
▁then	-491
ident	-492
lic	-493
ower	-494
▁gen	-495
▁There	-496
▁acc	-497
ual	-498
▁ser	-499
ular	-500
▁bo	-501
man	-502
▁even	-503
▁life	-504
▁could	-505
▁rec	-506
▁co	-507
igh	-508
ough	-509
▁how	-510
▁again	-511
vers	-512
ature	-513
▁where	-514
▁differe	-515
▁min	-516
ip	-517
▁col	-518
ful	-519
ne	-520
end	-521
▁We	-522
▁Go	-523
form	-524
▁des	-525
▁pres	-526
▁called	-527
ities	-528
ament	-529
arli	-530
▁see	-531
ark	-532
ered	-533
▁every	-534
rib	-535
▁such	-536
ght	-537
iss	-538
lect	-539
▁reg	-540
▁import	-541
▁They	-542
▁lit	-543
ting	-544
hy	-545
▁start	-546
▁ter	-547
▁rem	-548
▁government	-549
▁pers	-550
▁way	-551
other	-552
ward	-553
▁sub	-554
▁just	-555
ning	-556
▁she	-557
▁state	-558
▁att	-559
ween	-560
▁country	-561
gan	-562
▁did	-563
oth	-564
▁sy	-565
wn	-566
▁mat	-567
▁ent	-568
▁If	-569
▁Mah	-570
ts	-571
▁bu	-572
ister	-573
oy	-574
rough	-575
▁make	-576
round	-577
velop	-578
▁between	-579
▁now	-580
ec	-581
ors	-582
▁writ	-583
▁war	-584
ank	-585
▁giv	-586
▁relig	-587
uch	-588
ments	-589
ied	-590
ash	-591
ai	-592
ject	-593
▁need	-594
▁bl	-595
▁sec	-596
▁mem	-597
old	-598
▁Un	-599
▁great	-600
▁power	-601
lim	-602
ob	-603
▁said	-604
▁hel	-605
▁through	-606
ars	-607
▁You	-608
▁main	-609
ian	-610
▁sm	-611
als	-612
▁want	-613
▁?	-614
ange	-615
▁ac	-616
▁right	-617
tain	-618
▁being	-619
▁prov	-620
ave	-621
own	-622
hen	-623
▁child	-624
ouse	-625
oc	-626
▁Sh	-627
▁ob	-628
▁play	-629
les	-630
ten	-631
▁Com	-632
▁before	-633
cess	-634
cept	-635
▁cap	-636
▁bel	-637
▁fam	-638
▁long	-639
ific	-640
▁back	-641
ible	-642
▁help	-643
▁develop	-644
ana	-645
▁tem	-646
▁polit	-647
ict	-648
ms	-649
▁Am	-650
▁pub	-651
ited	-652
▁mon	-653
pect	-654
▁tak	-655
self	-656
hat	-657
ib	-658
ures	-659
▁good	-660
▁produ	-661
▁used	-662
angu	-663
▁imp	-664
▁lar	-665
▁different	-666
▁end	-667
xt	-668
hes	-669
▁those	-670
ram	-671
▁three	-672
eth	-673
pend	-674
up	-675
led	-676
▁4	-677
ick	-678
▁here	-679
▁think	-680
ative	-681
ft	-682
▁ph	-683
▁day	-684
▁indust	-685
▁eff	-686
▁well	-687
▁ke	-688
ually	-689
ph	-690
ised	-691
▁bas	-692
▁car	-693
▁200	-694
▁take	-695
▁Hindi	-696
▁tra	-697
ever	-698
▁dist	-699
▁wom	-700
▁inv	-701
▁lead	-702
▁during	-703
“”	-704
▁gener	-705
urn	-706
ody	-707
▁court	-708
▁fol	-709
tle	-710
olog	-711
▁5	-712
▁num	-713
ands	-714
▁own	-715
int	-716
▁use	-717
ya	-718
▁supp	-719
▁Mus	-720
▁hum	-721
▁langu	-722
▁br	-723
▁“”	-724
ngl	-725
stitution	-726
▁much	-727
▁found	-728
arliament	-729
air	-730
ily	-731
cy	-732
▁look	-733
▁same	-734
▁place	-735
lud	-736
▁mod	-737
ages	-738
▁person	-739
ari	-740
ents	-741
me	-742
▁fact	-743
▁trans	-744
▁Ram	-745
▁Brit	-746
con	-747
ries	-748
ness	-749
▁important	-750
▁Con	-751
▁ord	-752
▁Engl	-753
▁word	-754
get	-755
▁fl	-756
▁De	-757
ron	-758
▁art	-759
▁law	-760
nce	-761
▁follow	-762
ather	-763
▁Government	-764
▁does	-765
und	-766
ording	-767
▁ins	-768
▁cult	-769
▁ev	-770
its	-771
ural	-772
ating	-773
ished	-774
▁rep	-775
hip	-776
ma	-777
▁consid	-778
▁For	-779
▁against	-780
▁ear	-781
▁name	-782
ided	-783
ves	-784
▁18	-785
imes	-786
▁dem	-787
▁sur	-788
▁proble	-789
ital	-790
▁op	-791
▁book	-792
ving	-793
ool	-794
way	-795
▁down	-796
reed	-797
▁char	-798
bers	-799
▁say	-800
stru	-801
ters	-802
▁come	-803
gg	-804
ern	-805
alk	-806
000	-807
min	-808
ists	-809
▁Muslim	-810
gal	-811
stem	-812
ility	-813
▁four	-814
roup	-815
▁pop	-816
▁pass	-817
▁ap	-818
▁exp	-819
ctions	-820
▁must	-821
▁real	-822
▁Raj	-823
mit	-824
▁happ	-825
uth	-826
▁both	-827
▁Is	-828
iew	-829
▁def	-830
▁organ	-831
ty	-832
ren	-833
ror	-834
▁add	-835
▁belie	-836
ats	-837
▁set	-838
uc	-839
▁On	-840
▁;	-841
esh	-842
ants	-843
▁going	-844
read	-845
▁fin	-846
▁sim	-847
▁includ	-848
▁Ne	-849
▁water	-850
▁British	-851
ix	-852
▁Pr	-853
ision	-854
outh	-855
ics	-856
▁An	-857
▁ed	-858
▁run	-859
▁6	-860
vice	-861
ute	-862
ury	-863
▁given	-864
▁Ar	-865
▁comple	-866
▁Hindu	-867
iod	-868
▁mill	-869
▁commun	-870
▁each	-871
▁last	-872
ract	-873
▁system	-874
umb	-875
▁human	-876
▁number	-877
▁fore	-878
▁disc	-879
orn	-880
▁loc	-881
▁Cong	-882
▁got	-883
ission	-884
▁came	-885
▁high	-886
▁Al	-887
▁ele	-888
▁political	-889
here	-890
▁stud	-891
▁dire	-892
bar	-893
ared	-894
▁old	-895
▁ref	-896
oun	-897
▁Congress	-898
▁incre	-899
ale	-900
ince	-901
▁After	-902
▁social	-903
▁cre	-904
▁sit	-905
▁started	-906
▁period	-907
▁inf	-908
▁ide	-909
▁exam	-910
▁small	-911
cient	-912
▁grow	-913
▁conf	-914
▁ext	-915
▁group	-916
ull	-917
▁public	-918
▁read	-919
▁inter	-920
ata	-921
▁sch	-922
na	-923
▁Bh	-924
mb	-925
▁ri	-926
▁som	-927
▁known	-928
▁language	-929
augh	-930
▁give	-931
▁ty	-932
▁chang	-933
▁All	-934
▁mak	-935
ati	-936
▁di	-937
▁case	-938
▁av	-939
arch	-940
ought	-941
▁position	-942
any	-943
▁Court	-944
alth	-945
ases	-946
istan	-947
ways	-948
▁put	-949
olution	-950
▁How	-951
ove	-952
▁show	-953
ax	-954
erest	-955
▁These	-956
ples	-957
▁est	-958
day	-959
▁things	-960
▁What	-961
ides	-962
ety	-963
rick	-964
▁national	-965
ral	-966
▁God	-967
▁large	-968
han	-969
erg	-970
▁At	-971
▁cond	-972
▁poss	-973
▁When	-974
ined	-975
▁big	-976
▁liv	-977
▁prog	-978
▁days	-979
▁gu	-980
▁another	-981
ried	-982
▁class	-983
▁conc	-984
med	-985
ention	-986
conom	-987
▁contin	-988
▁present	-989
rict	-990
▁bro	-991
▁med	-992
▁met	-993
▁stru	-994
▁hist	-995
▁interest	-996
▁far	-997
▁Parliament	-998
▁str	-999
▁air	-1000
▁ass	-1001
ee	-1002
ines	-1003
▁effect	-1004
▁without	-1005
▁Sub	-1006
▁Ak	-1007
▁gr	-1008
▁month	-1009
▁leg	-1010
▁rul	-1011
▁quest	-1012
▁English	-1013
▁rev	-1014
▁become	-1015
▁minister	-1016
ason	-1017
▁cle	-1018
▁move	-1019
▁7	-1020
▁contro	-1021
▁gl	-1022
ased	-1023
▁opp	-1024
ices	-1025
▁hand	-1026
▁exper	-1027
▁partic	-1028
eric	-1029
▁less	-1030
az	-1031
▁while	-1032
aughter	-1033
chn	-1034
ird	-1035
▁spec	-1036
ajor	-1037
ues	-1038
▁few	-1039
▁jud	-1040
ets	-1041
lam	-1042
,000	-1043
▁ask	-1044
▁15	-1045
▁became	-1046
▁find	-1047
▁econom	-1048
▁members	-1049
.”	-1050
ief	-1051
osed	-1052
▁don	-1053
▁kind	-1054
▁gre	-1055
▁later	-1056
abha	-1057
▁religion	-1058
▁liter	-1059
▁mar	-1060
▁Pres	-1061
▁She	-1062
▁age	-1063
▁change	-1064
wards	-1065
▁That	-1066
eg	-1067
lished	-1068
▁ret	-1069
▁fil	-1070
▁feel	-1071
icial	-1072
▁aff	-1073
▁appe	-1074
▁adv	-1075
▁pur	-1076
iness	-1077
▁too	-1078
▁land	-1079
▁second	-1080
▁199	-1081
ired	-1082
▁Pro	-1083
▁took	-1084
▁body	-1085
uss	-1086
▁view	-1087
ock	-1088
▁inde	-1089
formation	-1090
▁really	-1091
af	-1092
▁common	-1093
not	-1094
udd	-1095
rial	-1096
▁done	-1097
▁build	-1098
▁city	-1099
▁little	-1100
ork	-1101
itions	-1102
ner	-1103
▁order	-1104
ulation	-1105
ield	-1106
▁side	-1107
▁school	-1108
▁lot	-1109
ertain	-1110
ins	-1111
▁plan	-1112
orth	-1113
▁result	-1114
ek	-1115
less	-1116
arn	-1117
ality	-1118
▁major	-1119
▁8	-1120
reme	-1121
ateg	-1122
▁equ	-1123
▁around	-1124
▁still	-1125
ici	-1126
ately	-1127
▁resp	-1128
▁women	-1129
▁cro	-1130
▁men	-1131
umbai	-1132
▁open	-1133
▁among	-1134
▁Q	-1135
▁near	-1136
▁10	-1137
▁children	-1138
aces	-1139
▁State	-1140
▁underst	-1141
ala	-1142
▁Akbar	-1143
ret	-1144
▁head	-1145
uk	-1146
ina	-1147
▁det	-1148
ically	-1149
▁support	-1150
▁techn	-1151
▁dep	-1152
▁educ	-1153
sh	-1154
▁mark	-1155
▁taken	-1156
ran	-1157
▁intern	-1158
▁expl	-1159
▁Now	-1160
ither	-1161
ript	-1162
▁beg	-1163
▁mind	-1164
pur	-1165
ains	-1166
▁whole	-1167
▁let	-1168
▁went	-1169
▁direct	-1170
▁cr	-1171
▁Americ	-1172
▁million	-1173
idd	-1174
▁bus	-1175
▁elect	-1176
▁special	-1177
▁occ	-1178
ology	-1179
rah	-1180
▁keep	-1181
ense	-1182
▁sign	-1183
▁sol	-1184
ration	-1185
ricket	-1186
▁due	-1187
▁terror	-1188
▁var	-1189
ories	-1190
▁process	-1191
aut	-1192
ali	-1193
ems	-1194
▁care	-1195
▁mus	-1196
▁house	-1197
akistan	-1198
ug	-1199
▁home	-1200
▁mean	-1201
▁rest	-1202
▁means	-1203
▁development	-1204
▁family	-1205
▁avail	-1206
▁et	-1207
ivil	-1208
▁President	-1209
ef	-1210
▁requ	-1211
vi	-1212
▁vis	-1213
ething	-1214
icle	-1215
▁left	-1216
▁talk	-1217
▁party	-1218
▁cor	-1219
▁appro	-1220
▁Ben	-1221
▁Del	-1222
ansk	-1223
▁Min	-1224
▁nam	-1225
▁story	-1226
▁prop	-1227
▁inst	-1228
▁always	-1229
▁poet	-1230
▁century	-1231
▁val	-1232
▁times	-1233
adi	-1234
ront	-1235
▁sent	-1236
▁div	-1237
ger	-1238
▁area	-1239
▁away	-1240
▁level	-1241
ara	-1242
▁cell	-1243
▁never	-1244
ged	-1245
▁che	-1246
ys	-1247
ency	-1248
▁etc	-1249
ourse	-1250
▁Islam	-1251
▁polic	-1252
anskrit	-1253
amp	-1254
▁Af	-1255
▁stand	-1256
ges	-1257
used	-1258
▁Gand	-1259
▁situ	-1260
alf	-1261
uro	-1262
oney	-1263
▁sing	-1264
▁within	-1265
▁To	-1266
▁eas	-1267
riend	-1268
▁something	-1269
▁His	-1270
▁industry	-1271
ss	-1272
▁thought	-1273
▁Acc	-1274
▁poll	-1275
reedom	-1276
▁best	-1277
▁trad	-1278
▁ru	-1279
iron	-1280
▁pri	-1281
▁beh	-1282
▁iss	-1283
▁says	-1284
▁194	-1285
uthor	-1286
▁vill	-1287
isation	-1288
▁estab	-1289
▁food	-1290
pr	-1291
most	-1292
▁Delhi	-1293
▁why	-1294
▁reason	-1295
ccess	-1296
lu	-1297
▁health	-1298
▁mil	-1299
▁12	-1300
▁love	-1301
▁though	-1302
▁Subh	-1303
▁young	-1304
▁Se	-1305
▁Pakistan	-1306
▁example	-1307
▁five	-1308
▁countries	-1309
▁20	-1310
▁thing	-1311
▁cannot	-1312
▁Constitution	-1313
19	-1314
▁tell	-1315
Laughter	-1316
▁9	-1317
▁matter	-1318
▁One	-1319
▁death	-1320
ances	-1321
ivers	-1322
▁particular	-1323
cts	-1324
ising	-1325
ilt	-1326
▁Mumbai	-1327
ta	-1328
▁sl	-1329
thing	-1330
▁meet	-1331
▁information	-1332
ently	-1333
▁king	-1334
▁river	-1335
▁religious	-1336
▁193	-1337
▁repres	-1338
inal	-1339
ering	-1340
rish	-1341
▁Gang	-1342
▁desc	-1343
▁problem	-1344
▁culture	-1345
▁happen	-1346
▁history	-1347
▁available	-1348
▁cur	-1349
▁House	-1350
▁local	-1351
▁success	-1352
▁197	-1353
▁vide	-1354
▁friend	-1355
isl	-1356
▁top	-1357
▁freedom	-1358
),	-1359
▁parts	-1360
▁next	-1361
▁often	-1362
▁Sing	-1363
omb	-1364
▁since	-1365
oss	-1366
ained	-1367
▁accept	-1368
▁written	-1369
▁try	-1370
▁fun	-1371
▁full	-1372
▁According	-1373
▁gra	-1374
otion	-1375
▁author	-1376
▁temple	-1377
tee	-1378
par	-1379
▁Ved	-1380
adesh	-1381
▁team	-1382
▁understand	-1383
▁bat	-1384
▁dev	-1385
▁Gandhi	-1386
▁Ad	-1387
▁soci	-1388
▁stre	-1389
▁Ab	-1390
▁actually	-1391
eral	-1392
▁lim	-1393
ience	-1394
▁wall	-1395
▁words	-1396
▁prin	-1397
▁fac	-1398
▁control	-1399
rat	-1400
ives	-1401
▁subject	-1402
▁today	-1403
▁hard	-1404
▁prev	-1405
▁however	-1406
selves	-1407
ches	-1408
uran	-1409
▁decl	-1410
▁turn	-1411
▁short	-1412
ize	-1413
ling	-1414
▁might	-1415
▁Muslims	-1416
▁anim	-1417
osp	-1418
▁Mu	-1419
▁woman	-1420
▁himself	-1421
▁possible	-1422
▁able	-1423
▁prom	-1424
▁el	-1425
▁seen	-1426
▁Some	-1427
ized	-1428
ert	-1429
▁news	-1430
▁activ	-1431
▁Bengal	-1432
▁free	-1433
▁independ	-1434
▁front	-1435
lf	-1436
▁New	-1437
ected	-1438
ination	-1439
▁modern	-1440
ery	-1441
▁Ex	-1442
▁orig	-1443
▁week	-1444
ivid	-1445
▁hig	-1446
▁itself	-1447
▁various	-1448
urope	-1449
ession	-1450
idence	-1451
▁certain	-1452
▁question	-1453
por	-1454
▁considered	-1455
cil	-1456
els	-1457
▁exc	-1458
my	-1459
rab	-1460
▁better	-1461
▁states	-1462
▁consider	-1463
▁according	-1464
▁live	-1465
▁problems	-1466
▁pat	-1467
▁civil	-1468
▁months	-1469
▁capital	-1470
▁National	-1471
▁gave	-1472
urther	-1473
oin	-1474
▁point	-1475
ube	-1476
ke	-1477
war	-1478
ified	-1479
▁Sanskrit	-1480
▁ca	-1481
omes	-1482
rodu	-1483
▁Brah	-1484
▁field	-1485
▁literature	-1486
▁allow	-1487
▁respons	-1488
▁Ag	-1489
icult	-1490
rought	-1491
▁money	-1492
aim	-1493
acter	-1494
▁represent	-1495
▁Act	-1496
▁light	-1497
▁making	-1498
▁dra	-1499
erence	-1500
▁clear	-1501
ones	-1502
▁sex	-1503
▁colle	-1504
▁necess	-1505
▁leaders	-1506
ploy	-1507
gether	-1508
▁together	-1509
ued	-1510
▁198	-1511
▁Europe	-1512
▁god	-1513
▁post	-1514
▁list	-1515
▁Commit	-1516
▁report	-1517
ison	-1518
amb	-1519
▁Sabha	-1520
▁cricket	-1521
▁difficult	-1522
▁Comm	-1523
▁fund	-1524
▁service	-1525
▁ball	-1526
▁famous	-1527
irc	-1528
▁heart	-1529
▁course	-1530
▁constitution	-1531
▁six	-1532
▁changes	-1533
cture	-1534
▁pract	-1535
▁However	-1536
▁ste	-1537
▁till	-1538
▁mater	-1539
▁bow	-1540
▁tot	-1541
▁believe	-1542
▁individ	-1543
▁business	-1544
▁Cent	-1545
▁bill	-1546
▁Singh	-1547
▁based	-1548
▁tru	-1549
▁serv	-1550
▁mother	-1551
▁sk	-1552
ably	-1553
▁beaut	-1554
▁comes	-1555
▁foreign	-1556
ctor	-1557
uted	-1558
▁father	-1559
▁general	-1560
▁past	-1561
cent	-1562
▁rece	-1563
▁upon	-1564
▁built	-1565
ook	-1566
▁others	-1567
▁towards	-1568
ledge	-1569
cience	-1570
ote	-1571
▁prot	-1572
minist	-1573
▁along	-1574
▁either	-1575
▁entire	-1576
ham	-1577
the	-1578
ji	-1579
▁begin	-1580
ategory	-1581
arm	-1582
▁Chand	-1583
aras	-1584
ived	-1585
▁individual	-1586
▁brought	-1587
ode	-1588
ilar	-1589
irth	-1590
ouncil	-1591
▁exist	-1592
▁prof	-1593
▁rule	-1594
▁16	-1595
▁education	-1596
aps	-1597
ortun	-1598
▁proper	-1599
ev	-1600
▁production	-1601
hile	-1602
▁early	-1603
▁policy	-1604
▁south	-1605
▁almost	-1606
▁complete	-1607
▁Pl	-1608
▁ce	-1609
ours	-1610
▁tre	-1611
▁Rs	-1612
▁face	-1613
akh	-1614
iction	-1615
▁movement	-1616
ceed	-1617
ched	-1618
▁circ	-1619
▁cost	-1620
▁dise	-1621
▁States	-1622
▁respect	-1623
▁No	-1624
hing	-1625
side	-1626
▁doing	-1627
▁having	-1628
▁population	-1629
▁half	-1630
▁inse	-1631
▁role	-1632
▁played	-1633
▁whether	-1634
ids	-1635
▁non	-1636
▁told	-1637
que	-1638
tar	-1639
▁places	-1640
rishna	-1641
viron	-1642
semb	-1643
▁pen	-1644
▁region	-1645
▁return	-1646
ani	-1647
▁bring	-1648
▁Minister	-1649
of	-1650
▁ground	-1651
▁popular	-1652
▁ve	-1653
▁earli	-1654
▁flow	-1655
▁blood	-1656
aper	-1657
▁nat	-1658
abhar	-1659
▁member	-1660
▁society	-1661
ured	-1662
▁ann	-1663
▁constru	-1664
▁With	-1665
tend	-1666
▁film	-1667
▁fut	-1668
▁typ	-1669
illed	-1670
▁bre	-1671
iddle	-1672
cut	-1673
arat	-1674
▁192	-1675
▁sour	-1676
▁Union	-1677
▁earth	-1678
▁nature	-1679
oint	-1680
▁action	-1681
▁living	-1682
ava	-1683
▁Me	-1684
▁bats	-1685
▁economic	-1686
▁material	-1687
gest	-1688
▁influ	-1689
▁growth	-1690
▁working	-1691
▁son	-1692
▁Nep	-1693
ember	-1694
▁eng	-1695
ecause	-1696
▁During	-1697
▁pay	-1698
arent	-1699
ier	-1700
▁scient	-1701
).	-1702
▁type	-1703
ards	-1704
▁once	-1705
urd	-1706
▁self	-1707
▁themselves	-1708
abad	-1709
▁discuss	-1710
ying	-1711
▁enough	-1712
verse	-1713
cially	-1714
▁sever	-1715
▁further	-1716
put	-1717
▁Te	-1718
asth	-1719
▁pow	-1720
▁spir	-1721
▁speak	-1722
▁program	-1723
▁Mo	-1724
aint	-1725
▁north	-1726
ti	-1727
land	-1728
ready	-1729
▁redu	-1730
vironment	-1731
▁knowledge	-1732
50	-1733
rote	-1734
va	-1735
work	-1736
▁compl	-1737
▁invest	-1738
▁attack	-1739
▁Gu	-1740
ival	-1741
▁test	-1742
▁books	-1743
▁Hindus	-1744
ogra	-1745
▁dom	-1746
▁mor	-1747
▁ten	-1748
ences	-1749
imate	-1750
▁future	-1751
▁administ	-1752
▁super	-1753
ox	-1754
▁areas	-1755
men	-1756
▁instru	-1757
▁describ	-1758
▁therefore	-1759
istic	-1760
▁cases	-1761
▁revolution	-1762
lause	-1763
▁community	-1764
ser	-1765
▁es	-1766
atch	-1767
▁ben	-1768
▁hold	-1769
▁Because	-1770
aster	-1771
▁depend	-1772
ape	-1773
▁commit	-1774
ler	-1775
▁tradition	-1776
oms	-1777
▁wrote	-1778
App	-1779
line	-1780
▁Bill	-1781
▁oper	-1782
▁several	-1783
chan	-1784
▁already	-1785
mir	-1786
▁Spe	-1787
▁suff	-1788
▁design	-1789
ached	-1790
▁progress	-1791
rop	-1792
▁mob	-1793
▁phone	-1794
Applause	-1795
ump	-1796
andap	-1797
▁Man	-1798
▁born	-1799
▁norm	-1800
▁treat	-1801
▁character	-1802
▁necessary	-1803
▁ey	-1804
oura	-1805
▁ple	-1806
acity	-1807
▁mess	-1808
▁rele	-1809
▁United	-1810
ada	-1811
ining	-1812
▁birth	-1813
body	-1814
▁deal	-1815
▁China	-1816
▁getting	-1817
▁vi	-1818
▁196	-1819
▁stat	-1820
▁terrorism	-1821
▁Even	-1822
▁meth	-1823
▁stop	-1824
▁Nepal	-1825
▁impro	-1826
▁decided	-1827
▁international	-1828
▁li	-1829
▁Pre	-1830
▁passed	-1831
▁princi	-1832
▁wr	-1833
▁following	-1834
ead	-1835
▁single	-1836
▁Committee	-1837
erc	-1838
▁official	-1839
▁yet	-1840
▁invol	-1841
▁spread	-1842
▁services	-1843
▁developed	-1844
ung	-1845
lish	-1846
ware	-1847
▁abs	-1848
▁unt	-1849
▁including	-1850
omm	-1851
cing	-1852
orld	-1853
▁sou	-1854
▁using	-1855
▁behind	-1856
▁strong	-1857
oll	-1858
▁Sup	-1859
▁video	-1860
▁powers	-1861
▁project	-1862
ann	-1863
▁Or	-1864
▁runs	-1865
▁village	-1866
▁High	-1867
▁held	-1868
eration	-1869
▁employ	-1870
▁account	-1871
▁Mahabhar	-1872
▁parliament	-1873
▁i	-1874
▁ever	-1875
ship	-1876
▁link	-1877
▁press	-1878
▁Ut	-1879
▁Cal	-1880
▁Lok	-1881
mp	-1882
itiz	-1883
▁enc	-1884
ior	-1885
▁ton	-1886
▁cast	-1887
▁fall	-1888
▁rese	-1889
▁claim	-1890
ises	-1891
▁idea	-1892
▁purp	-1893
▁above	-1894
▁thous	-1895
▁Supreme	-1896
▁Be	-1897
▁Him	-1898
▁named	-1899
▁established	-1900
sw	-1901
mber	-1902
▁feed	-1903
verage	-1904
▁Afric	-1905
▁earlier	-1906
▁industrial	-1907
apan	-1908
▁Roy	-1909
▁soon	-1910
▁separ	-1911
▁rights	-1912
▁spirit	-1913
▁ancient	-1914
▁district	-1915
▁14	-1916
▁dest	-1917
▁expect	-1918
urb	-1919
▁Wh	-1920
▁ago	-1921
▁tele	-1922
isions	-1923
▁democ	-1924
▁taking	-1925
▁Sec	-1926
aring	-1927
▁Ganga	-1928
▁demand	-1929
▁regard	-1930
▁article	-1931
▁11	-1932
ergy	-1933
estern	-1934
▁president	-1935
▁dr	-1936
▁Jan	-1937
▁cause	-1938
▁learn	-1939
▁Subhas	-1940
▁17	-1941
aries	-1942
▁mass	-1943
▁hands	-1944
▁My	-1945
rest	-1946
rated	-1947
▁object	-1948
▁wanted	-1949
▁low	-1950
sembly	-1951
▁perform	-1952
▁capacity	-1953
dom	-1954
ope	-1955
▁bra	-1956
ively	-1957
▁Intern	-1958
obal	-1959
▁web	-1960
▁crit	-1961
▁brother	-1962
ott	-1963
▁ill	-1964
▁par	-1965
▁Pradesh	-1966
▁created	-1967
abu	-1968
alay	-1969
soci	-1970
▁meas	-1971
▁priv	-1972
▁began	-1973
▁method	-1974
▁Category	-1975
▁Do	-1976
acher	-1977
▁fail	-1978
▁America	-1979
ama	-1980
▁By	-1981
▁sw	-1982
▁aut	-1983
▁rate	-1984
▁chief	-1985
▁whose	-1986
ability	-1987
▁England	-1988
iful	-1989
▁ess	-1990
▁step	-1991
ological	-1992
ouses	-1993
ush	-1994
iding	-1995
▁transl	-1996
▁express	-1997
erman	-1998
▁similar	-1999
acy	-2000
ots	-2001
▁asked	-2002
▁total	-2003
iversity	-2004
be	-2005
haps	-2006
▁Arab	-2007
▁agree	-2008
▁police	-2009
▁science	-2010
rim	-2011
▁mag	-2012
▁third	-2013
▁market	-2014
▁environment	-2015
anch	-2016
▁answ	-2017
chie	-2018
ming	-2019
▁Kab	-2020
▁World	-2021
▁except	-2022
uf	-2023
▁lab	-2024
▁Bhag	-2025
▁true	-2026
adr	-2027
▁dou	-2028
▁conv	-2029
nes	-2030
▁fa	-2031
empt	-2032
asthan	-2033
▁South	-2034
▁makes	-2035
▁record	-2036
▁batsman	-2037
▁natural	-2038
▁outside	-2039
ony	-2040
▁fight	-2041
▁concern	-2042
hys	-2043
imum	-2044
▁deg	-2045
cious	-2046
▁hind	-2047
▁vari	-2048
▁least	-2049
▁needs	-2050
▁nation	-2051
ashmir	-2052
ential	-2053
osition	-2054
ored	-2055
iting	-2056
▁deep	-2057
▁wrong	-2058
▁simple	-2059
▁decision	-2060
▁published	-2061
▁rail	-2062
▁legisl	-2063
▁middle	-2064
ogn	-2065
▁dut	-2066
ibility	-2067
▁mobile	-2068
▁percent	-2069
val	-2070
▁saf	-2071
▁Many	-2072
▁mach	-2073
etimes	-2074
▁music	-2075
▁Chandra	-2076
ium	-2077
▁army	-2078
▁achie	-2079
▁quite	-2080
to	-2081
▁vol	-2082
▁poor	-2083
agar	-2084
ross	-2085
▁fav	-2086
▁Japan	-2087
▁While	-2088
▁beginning	-2089
ita	-2090
▁job	-2091
▁sat	-2092
▁pict	-2093
▁groups	-2094
▁25	-2095
▁energy	-2096
▁average	-2097
ane	-2098
▁viol	-2099
▁citiz	-2100
▁comput	-2101
▁30	-2102
rent	-2103
ization	-2104
▁technology	-2105
▁Budd	-2106
▁kept	-2107
▁strugg	-2108
▁temples	-2109
▁increase	-2110
▁increased	-2111
dd	-2112
▁13	-2113
inary	-2114
urity	-2115
▁heav	-2116
▁opin	-2117
eneral	-2118
▁mount	-2119
asing	-2120
▁arch	-2121
itation	-2122
▁Council	-2123
▁central	-2124
▁pill	-2125
utions	-2126
▁office	-2127
▁vers	-2128
▁temper	-2129
▁Pe	-2130
het	-2131
▁ut	-2132
▁sum	-2133
▁Then	-2134
▁Kashmir	-2135
▁Krishna	-2136
▁experience	-2137
oor	-2138
sequ	-2139
▁bad	-2140
▁King	-2141
▁bank	-2142
▁ways	-2143
▁carry	-2144
chand	-2145
▁pain	-2146
unt	-2147
osop	-2148
itive	-2149
▁tour	-2150
▁species	-2151
▁del	-2152
▁close	-2153
▁match	-2154
oot	-2155
use	-2156
oice	-2157
▁creat	-2158
▁tried	-2159
▁types	-2160
▁disease	-2161
▁quality	-2162
▁cultural	-2163
▁beautiful	-2164
pped	-2165
▁Ser	-2166
hru	-2167
hood	-2168
itary	-2169
▁offic	-2170
▁rules	-2171
▁introdu	-2172
ask	-2173
irl	-2174
aced	-2175
▁green	-2176
▁terms	-2177
▁German	-2178
▁address	-2179
▁stories	-2180
▁Kh	-2181
ator	-2182
over	-2183
▁Art	-2184
▁fast	-2185
▁industries	-2186
eng	-2187
▁Tr	-2188
▁Bhar	-2189
▁courts	-2190
▁collect	-2191
▁related	-2192
▁languages	-2193
uct	-2194
▁cal	-2195
▁sal	-2196
ombay	-2197
▁comb	-2198
▁eight	-2199
▁sense	-2200
▁opportun	-2201
▁provided	-2202
mer	-2203
▁2.	-2204
▁applic	-2205
▁constit	-2206
▁matters	-2207
iti	-2208
▁study	-2209
▁mention	-2210
unj	-2211
▁script	-2212
-1	-2213
▁..	-2214
▁50	-2215
▁dam	-2216
▁plant	-2217
▁structure	-2218
iva	-2219
atic	-2220
▁lat	-2221
ption	-2222
▁lost	-2223
▁conditions	-2224
▁er	-2225
▁gets	-2226
▁phys	-2227
▁works	-2228
ilities	-2229
▁teacher	-2230
▁majority	-2231
▁Cl	-2232
uary	-2233
▁sun	-2234
▁relations	-2235
▁importance	-2236
▁1.	-2237
▁Lord	-2238
▁port	-2239
▁takes	-2240
▁animals	-2241
▁justice	-2242
▁anything	-2243
▁0	-2244
fer	-2245
hest	-2246
▁Uttar	-2247
▁basis	-2248
▁inside	-2249
▁building	-2250
rate	-2251
▁squ	-2252
▁until	-2253
▁detail	-2254
▁higher	-2255
yle	-2256
agore	-2257
▁wife	-2258
▁tonnes	-2259
medi	-2260
▁net	-2261
▁shr	-2262
▁disp	-2263
▁game	-2264
▁issue	-2265
▁situation	-2266
▁seem	-2267
▁remain	-2268
▁usually	-2269
▁Rajasthan	-2270
eb	-2271
oad	-2272
▁meaning	-2273
com	-2274
joy	-2275
▁May	-2276
▁won	-2277
▁Shah	-2278
▁benef	-2279
ication	-2280
▁Indians	-2281
abh	-2282
uck	-2283
▁sac	-2284
▁fest	-2285
▁gives	-2286
artment	-2287
like	-2288
▁deb	-2289
▁fem	-2290
cutta	-2291
▁Part	-2292
▁contact	-2293
▁provide	-2294
ilosop	-2295
though	-2296
▁reach	-2297
▁Bombay	-2298
▁nothing	-2299
▁Re	-2300
▁Bas	-2301
▁red	-2302
▁win	-2303
▁From	-2304
gar	-2305
ols	-2306
▁hy	-2307
where	-2308
▁lakh	-2309
▁text	-2310
ricult	-2311
▁ident	-2312
▁night	-2313
▁occur	-2314
▁Tagore	-2315
▁global	-2316
▁insects	-2317
▁serious	-2318
ned	-2319
▁US	-2320
▁Here	-2321
▁forms	-2322
▁becomes	-2323
▁personal	-2324
▁generally	-2325
▁transport	-2326
▁Kal	-2327
▁cells	-2328
▁peace	-2329
▁plants	-2330
ggest	-2331
▁base	-2332
▁died	-2333
▁line	-2334
▁thus	-2335
▁basic	-2336
▁origin	-2337
▁source	-2338
▁writing	-2339
aker	-2340
▁Par	-2341
▁Pol	-2342
ancial	-2343
▁compet	-2344
▁emp	-2345
▁mom	-2346
▁uni	-2347
▁Dist	-2348
▁imag	-2349
la	-2350
ream	-2351
▁mis	-2352
▁adop	-2353
▁fort	-2354
ternal	-2355
▁poems	-2356
▁truth	-2357
▁Calcutta	-2358
ami	-2359
icated	-2360
▁Africa	-2361
▁purpose	-2362
▁addition	-2363
▁Bi	-2364
▁wa	-2365
▁Most	-2366
▁enjoy	-2367
▁evidence	-2368
▁fig	-2369
▁Asia	-2370
▁effort	-2371
▁forest	-2372
▁parent	-2373
▁suggest	-2374
leb	-2375
ude	-2376
aged	-2377
ipur	-2378
utes	-2379
▁cust	-2380
▁else	-2381
▁stay	-2382
▁recogn	-2383
ov	-2384
aji	-2385
anas	-2386
▁Dev	-2387
▁Off	-2388
▁Taj	-2389
icles	-2390
▁conn	-2391
▁send	-2392
▁visit	-2393
hu	-2394
anda	-2395
stant	-2396
unjab	-2397
▁Thus	-2398
▁road	-2399
▁belong	-2400
▁consum	-2401
▁complex	-2402
vent	-2403
▁cave	-2404
▁soft	-2405
The	-2406
elt	-2407
▁inn	-2408
▁saw	-2409
ufact	-2410
▁Pand	-2411
▁song	-2412
ks	-2413
let	-2414
lled	-2415
▁cop	-2416
▁leader	-2417
▁situated	-2418
▁pollution	-2419
gu	-2420
▁Ge	-2421
▁tou	-2422
▁East	-2423
▁trib	-2424
▁obser	-2425
▁teach	-2426
▁particularly	-2427
?”	-2428
lt	-2429
▁z	-2430
▁san	-2431
▁goes	-2432
▁walk	-2433
andapa	-2434
▁prote	-2435
▁amount	-2436
▁research	-2437
▁questions	-2438
▁difference	-2439
▁Le	-2440
aking	-2441
▁fear	-2442
▁shall	-2443
▁associ	-2444
▁coming	-2445
▁formed	-2446
ification	-2447
lus	-2448
oke	-2449
ublic	-2450
▁camp	-2451
▁wide	-2452
▁exerc	-2453
pecially	-2454
▁activities	-2455
▁ir	-2456
▁100	-2457
▁American	-2458
▁powerful	-2459
▁Commission	-2460
▁successful	-2461
▁Its	-2462
▁pot	-2463
▁sea	-2464
▁force	-2465
▁trial	-2466
gs	-2467
ech	-2468
▁cut	-2469
▁ful	-2470
▁kne	-2471
ening	-2472
ental	-2473
rance	-2474
▁fire	-2475
▁Every	-2476
▁Nehru	-2477
uddin	-2478
ointed	-2479
▁emerg	-2480
▁ideas	-2481
▁lives	-2482
yn	-2483
band	-2484
▁bab	-2485
▁imm	-2486
▁lower	-2487
▁media	-2488
▁steel	-2489
▁meeting	-2490
▁included	-2491
▁manufact	-2492
▁philosop	-2493
▁signific	-2494
une	-2495
rist	-2496
▁maintain	-2497
oo	-2498
ishn	-2499
▁Dep	-2500
▁coal	-2501
▁judge	-2502
▁seven	-2503
▁ep	-2504
▁tax	-2505
▁West	-2506
▁wick	-2507
▁changed	-2508
▁opinion	-2509
by	-2510
ley	-2511
amil	-2512
amental	-2513
▁perhaps	-2514
airs	-2515
rown	-2516
▁Kar	-2517
itect	-2518
▁Thank	-2519
ini	-2520
▁pal	-2521
▁rather	-2522
▁followed	-2523
▁struggle	-2524
▁responsible	-2525
▁Sw	-2526
▁Plan	-2527
▁stage	-2528
▁across	-2529
▁longer	-2530
▁contrib	-2531
▁function	-2532
isf	-2533
▁195	-2534
▁bar	-2535
▁hon	-2536
▁ris	-2537
▁poin	-2538
▁imper	-2539
▁liber	-2540
ahar	-2541
aves	-2542
▁Leg	-2543
▁dri	-2544
▁size	-2545
▁sound	-2546
▁advice	-2547
ales	-2548
ecut	-2549
ened	-2550
ports	-2551
▁didn	-2552
▁celeb	-2553
▁space	-2554
▁election	-2555
▁continued	-2556
▁described	-2557
ps	-2558
racy	-2559
▁ens	-2560
▁Just	-2561
▁stra	-2562
▁friends	-2563
▁politics	-2564
▁everything	-2565
ift	-2566
oly	-2567
▁Res	-2568
▁harm	-2569
ection	-2570
▁award	-2571
▁Ph	-2572
▁vim	-2573
lands	-2574
▁Prem	-2575
▁data	-2576
▁easy	-2577
▁prim	-2578
▁prime	-2579
▁company	-2580
▁independence	-2581
▁40	-2582
inet	-2583
▁sche	-2584
vernor	-2585
▁deter	-2586
▁District	-2587
urg	-2588
▁hours	-2589
▁conver	-2590
co	-2591
ommend	-2592
▁leave	-2593
▁round	-2594
▁giving	-2595
▁histor	-2596
▁normal	-2597
▁especially	-2598
cle	-2599
come	-2600
▁aim	-2601
atures	-2602
▁concept	-2603
▁agricult	-2604
for	-2605
ura	-2606
htra	-2607
▁produced	-2608
▁authority	-2609
▁recommend	-2610
▁sil	-2611
▁felt	-2612
▁room	-2613
▁slow	-2614
▁trade	-2615
▁required	-2616
▁fr	-2617
▁egg	-2618
▁lay	-2619
▁Himalay	-2620
▁sometimes	-2621
aff	-2622
hern	-2623
uman	-2624
▁tri	-2625
▁vir	-2626
aving	-2627
▁happened	-2628
ese	-2629
hya	-2630
▁Ma	-2631
▁Comp	-2632
▁legs	-2633
▁stri	-2634
▁series	-2635
mar	-2636
uff	-2637
▁Can	-2638
atory	-2639
200	-2640
anj	-2641
▁eyes	-2642
▁gard	-2643
▁laws	-2644
▁male	-2645
▁prob	-2646
ecutive	-2647
▁influence	-2648
▁administration	-2649
una	-2650
▁ge	-2651
enced	-2652
▁March	-2653
▁chall	-2654
▁forces	-2655
▁looking	-2656
▁Not	-2657
▁Rel	-2658
▁mov	-2659
▁arri	-2660
▁girl	-2661
▁mere	-2662
▁white	-2663
▁write	-2664
▁appear	-2665
▁limited	-2666
▁accepted	-2667
▁ministers	-2668
etic	-2669
▁nor	-2670
▁oil	-2671
▁rise	-2672
▁attempt	-2673
▁thinking	-2674
sc	-2675
tem	-2676
▁Col	-2677
asons	-2678
▁doub	-2679
▁prep	-2680
▁bi	-2681
▁191	-2682
▁Punjab	-2683
▁immedi	-2684
▁January	-2685
wh	-2686
yed	-2687
▁wo	-2688
face	-2689
osing	-2690
▁former	-2691
▁secret	-2692
▁Central	-2693
nces	-2694
ober	-2695
▁neg	-2696
▁ones	-2697
▁radi	-2698
orthern	-2699
▁condition	-2700
▁University	-2701
▁Mad	-2702
▁deli	-2703
uge	-2704
▁Mr	-2705
cies	-2706
▁bal	-2707
▁hor	-2708
▁Bach	-2709
▁lear	-2710
itable	-2711
▁legal	-2712
▁architect	-2713
oid	-2714
ont	-2715
▁24	-2716
uses	-2717
▁vict	-2718
▁alone	-2719
▁stone	-2720
▁circum	-2721
▁create	-2722
▁trying	-2723
yas	-2724
ghan	-2725
iter	-2726
ites	-2727
ellig	-2728
uries	-2729
▁goods	-2730
▁regular	-2731
▁session	-2732
▁worship	-2733
▁electric	-2734
▁security	-2735
▁temperature	-2736
cl	-2737
ogle	-2738
▁Sur	-2739
▁inj	-2740
▁mot	-2741
▁Well	-2742
undred	-2743
▁black	-2744
▁style	-2745
▁compan	-2746
▁square	-2747
▁streng	-2748
▁independent	-2749
iver	-2750
mosp	-2751
ayana	-2752
▁corn	-2753
▁Subhash	-2754
enty	-2755
ring	-2756
▁Pers	-2757
▁arrest	-2758
▁poetry	-2759
▁allowed	-2760
▁financial	-2761
▁generation	-2762
cer	-2763
▁Allah	-2764
▁Mahal	-2765
▁model	-2766
▁share	-2767
▁Islamic	-2768
▁parties	-2769
▁pattern	-2770
ika	-2771
pper	-2772
ators	-2773
▁fair	-2774
▁names	-2775
▁cities	-2776
▁reached	-2777
▁citizens	-2778
▁Mahabharata	-2779
ew	-2780
ayan	-2781
ians	-2782
ills	-2783
vere	-2784
▁bur	-2785
▁tar	-2786
ctober	-2787
▁elected	-2788
▁received	-2789
▁Mar	-2790
▁Ter	-2791
▁arr	-2792
▁Khan	-2793
▁acqu	-2794
stances	-2795
▁current	-2796
▁forward	-2797
▁instead	-2798
▁protect	-2799
▁believed	-2800
▁declared	-2801
▁appointed	-2802
pan	-2803
aily	-2804
▁hit	-2805
▁Their	-2806
▁seems	-2807
▁Legisl	-2808
aka	-2809
phy	-2810
ratic	-2811
▁rain	-2812
▁repl	-2813
▁sure	-2814
▁whom	-2815
ension	-2816
▁bound	-2817
▁heard	-2818
▁highest	-2819
▁largest	-2820
▁establish	-2821
▁21	-2822
▁Sam	-2823
istry	-2824
itude	-2825
▁doll	-2826
▁below	-2827
▁prose	-2828
▁shape	-2829
▁shows	-2830
▁proceed	-2831
▁construction	-2832
avi	-2833
nds	-2834
ires	-2835
▁Net	-2836
▁emb	-2837
gress	-2838
▁proced	-2839
▁propos	-2840
rav	-2841
yal	-2842
▁Bl	-2843
▁unf	-2844
▁draw	-2845
▁milk	-2846
▁North	-2847
▁faith	-2848
mission	-2849
▁computer	-2850
▁specific	-2851
app	-2852
mad	-2853
▁Fin	-2854
▁jour	-2855
lected	-2856
▁travel	-2857
▁Germany	-2858
▁fundamental	-2859
rect	-2860
▁hus	-2861
▁dead	-2862
▁kids	-2863
▁mult	-2864
▁Afghan	-2865
▁greater	-2866
▁Im	-2867
▁dru	-2868
anger	-2869
lling	-2870
vious	-2871
▁phot	-2872
▁break	-2873
▁value	-2874
▁moment	-2875
aun	-2876
▁Di	-2877
▁Guj	-2878
▁nar	-2879
▁pun	-2880
▁loss	-2881
▁famil	-2882
▁killed	-2883
▁improve	-2884
▁include	-2885
▁increasing	-2886
▁scientific	-2887
ka	-2888
ixed	-2889
▁cat	-2890
alled	-2891
▁grad	-2892
▁amend	-2893
▁watch	-2894
▁Speaker	-2895
▁conduct	-2896
▁hundred	-2897
▁workers	-2898
ER	-2899
Tube	-2900
dden	-2901
aught	-2902
ented	-2903
▁pati	-2904
▁remo	-2905
▁cross	-2906
▁People	-2907
▁saying	-2908
▁carried	-2909
▁challen	-2910
▁experim	-2911
▁original	-2912
In	-2913
pir	-2914
▁22	-2915
yond	-2916
▁ver	-2917
phone	-2918
atives	-2919
▁Chief	-2920
▁atmosp	-2921
▁charge	-2922
▁divided	-2923
▁attention	-2924
oud	-2925
ague	-2926
▁190	-2927
▁Har	-2928
▁cra	-2929
abinet	-2930
▁Quran	-2931
▁appeal	-2932
▁worked	-2933
▁students	-2934
▁treatment	-2935
rid	-2936
itor	-2937
▁pet	-2938
▁pie	-2939
ously	-2940
▁term	-2941
▁west	-2942
action	-2943
▁refer	-2944
▁answer	-2945
▁instit	-2946
▁weight	-2947
▁Governor	-2948
▁festival	-2949
▁practice	-2950
▁interesting	-2951
ex	-2952
bon	-2953
kar	-2954
▁(19	-2955
▁Where	-2956
▁breed	-2957
ription	-2958
▁extreme	-2959
▁involved	-2960
▁opportunity	-2961
pre	-2962
ulpt	-2963
▁Sim	-2964
▁Trib	-2965
▁General	-2966
“”.	-2967
▁26	-2968
▁Ur	-2969
lies	-2970
▁cou	-2971
▁led	-2972
thern	-2973
▁east	-2974
▁qual	-2975
▁extra	-2976
▁prison	-2977
▁satisf	-2978
▁conflic	-2979
ajp	-2980
▁En	-2981
▁War	-2982
▁First	-2983
▁clean	-2984
▁newsp	-2985
▁beyond	-2986
▁October	-2987
▁continue	-2988
▁concerned	-2989
hara	-2990
uris	-2991
▁pil	-2992
aining	-2993
icient	-2994
▁solar	-2995
▁needed	-2996
▁feeling	-2997
▁persons	-2998
▁directly	-2999
uly	-3000
▁anal	-3001
▁path	-3002
▁paper	-3003
▁female	-3004
▁income	-3005
▁sector	-3006
▁encoura	-3007
att	-3008
ole	-3009
▁Of	-3010
▁Su	-3011
▁cam	-3012
▁symb	-3013
▁town	-3014
▁sudden	-3015
▁private	-3016
▁direction	-3017
ify	-3018
▁Dr	-3019
babu	-3020
▁Why	-3021
▁bit	-3022
▁rob	-3023
▁Agra	-3024
▁fell	-3025
▁wind	-3026
mitted	-3027
▁event	-3028
▁shown	-3029
▁animal	-3030
▁sculpt	-3031
▁growing	-3032
AT	-3033
der	-3034
▁fre	-3035
▁sort	-3036
vation	-3037
▁Rajya	-3038
▁Tamil	-3039
▁hindi	-3040
▁sides	-3041
▁Bharat	-3042
▁imperial	-3043
uls	-3044
▁Ap	-3045
▁kill	-3046
▁sold	-3047
▁broad	-3048
▁defin	-3049
▁spent	-3050
▁economy	-3051
▁finally	-3052
▁message	-3053
asc	-3054
ows	-3055
▁Tw	-3056
akes	-3057
char	-3058
ograph	-3059
▁mainly	-3060
▁thousand	-3061
CC	-3062
▁sn	-3063
▁date	-3064
▁Other	-3065
▁reform	-3066
atma	-3067
▁Jud	-3068
▁ult	-3069
▁vot	-3070
estic	-3071
ishnu	-3072
▁Badr	-3073
▁rich	-3074
▁assum	-3075
▁final	-3076
▁Basava	-3077
▁raised	-3078
▁distrib	-3079
▁den	-3080
ially	-3081
▁crim	-3082
esides	-3083
▁dream	-3084
▁Christ	-3085
▁judges	-3086
▁speech	-3087
▁network	-3088
ades	-3089
inga	-3090
oses	-3091
▁Bang	-3092
▁poem	-3093
▁check	-3094
▁doesn	-3095
▁resour	-3096
▁rivers	-3097
▁YouTube	-3098
▁construct	-3099
▁organisation	-3100
ghal	-3101
▁hope	-3102
▁webs	-3103
itness	-3104
▁initi	-3105
▁quick	-3106
▁consist	-3107
omen	-3108
adevi	-3109
▁risk	-3110
▁sand	-3111
▁walls	-3112
▁mentioned	-3113
ES	-3114
oon	-3115
▁TH	-3116
▁kil	-3117
▁Hist	-3118
▁feet	-3119
ensive	-3120
▁added	-3121
ference	-3122
▁engine	-3123
▁issues	-3124
▁letter	-3125
JP	-3126
ply	-3127
arth	-3128
▁ast	-3129
▁fif	-3130
▁door	-3131
▁sens	-3132
inated	-3133
igation	-3134
▁manner	-3135
▁obtain	-3136
▁Premchand	-3137
▁significant	-3138
▁juris	-3139
▁Though	-3140
▁caused	-3141
▁democracy	-3142
▁traditional	-3143
uru	-3144
yan	-3145
▁60	-3146
▁Law	-3147
▁Let	-3148
riage	-3149
▁schol	-3150
▁belief	-3151
▁manage	-3152
▁motion	-3153
▁billion	-3154
ED	-3155
irm	-3156
ney	-3157
shi	-3158
▁id	-3159
asion	-3160
▁rock	-3161
ounced	-3162
▁extend	-3163
▁Article	-3164
▁produce	-3165
▁reading	-3166
▁military	-3167
▁AI	-3168
aign	-3169
ging	-3170
▁aud	-3171
▁fed	-3172
▁alle	-3173
▁pray	-3174
▁seek	-3175
aximum	-3176
▁weeks	-3177
diction	-3178
lection	-3179
▁search	-3180
▁activity	-3181
cul	-3182
hib	-3183
reg	-3184
▁23	-3185
▁Ja	-3186
▁sus	-3187
atever	-3188
ressed	-3189
▁speed	-3190
▁center	-3191
▁placed	-3192
▁adopted	-3193
▁climate	-3194
▁located	-3195
▁reasons	-3196
▁probably	-3197
▁Badruddin	-3198
pril	-3199
unal	-3200
▁Sri	-3201
▁swe	-3202
udget	-3203
▁fine	-3204
▁soul	-3205
▁Vishnu	-3206
▁likely	-3207
▁achieve	-3208
▁husband	-3209
▁reality	-3210
head	-3211
▁bird	-3212
▁hosp	-3213
▁enter	-3214
▁latter	-3215
▁biggest	-3216
▁section	-3217
-7	-3218
gen	-3219
resh	-3220
mical	-3221
▁gold	-3222
▁page	-3223
▁site	-3224
▁occup	-3225
▁attract	-3226
▁approach	-3227
▁companies	-3228
NA	-3229
▁cy	-3230
▁dyn	-3231
▁perf	-3232
▁happy	-3233
▁houses	-3234
▁nearly	-3235
▁relationship	-3236
▁sle	-3237
orrow	-3238
▁weak	-3239
▁penis	-3240
ression	-3241
▁centre	-3242
▁player	-3243
▁wonder	-3244
▁parents	-3245
▁require	-3246
pal	-3247
fully	-3248
▁daily	-3249
▁unity	-3250
ography	-3251
▁target	-3252
▁happens	-3253
▁someone	-3254
▁centuries	-3255
▁Sc	-3256
vision	-3257
▁Kabir	-3258
▁Prime	-3259
▁kinds	-3260
▁offer	-3261
▁range	-3262
▁notice	-3263
▁territ	-3264
▁expected	-3265
▁conscious	-3266
▁statement	-3267
▁completely	-3268
▁application	-3269
ze	-3270
mon	-3271
abet	-3272
ayee	-3273
ider	-3274
year	-3275
▁huge	-3276
▁April	-3277
▁Under	-3278
▁equal	-3279
ovember	-3280
▁wicket	-3281
▁islands	-3282
▁Assembly	-3283
▁European	-3284
▁affected	-3285
▁officers	-3286
ikh	-3287
anga	-3288
▁Per	-3289
▁har	-3290
▁tit	-3291
▁ved	-3292
▁lies	-3293
▁Netaji	-3294
▁proved	-3295
▁videos	-3296
arashtra	-3297
▁picture	-3298
▁intellig	-3299
eds	-3300
oes	-3301
off	-3302
set	-3303
▁Dh	-3304
▁jo	-3305
▁mid	-3306
▁oce	-3307
ugust	-3308
▁task	-3309
cember	-3310
▁disci	-3311
▁indic	-3312
▁meant	-3313
▁colour	-3314
▁turned	-3315
▁vimana	-3316
▁married	-3317
▁western	-3318
▁programme	-3319
▁electricity	-3320
ady	-3321
his	-3322
mes	-3323
▁Air	-3324
▁BJP	-3325
ruary	-3326
▁News	-3327
▁Rama	-3328
hammad	-3329
▁Since	-3330
▁danger	-3331
▁height	-3332
▁campaign	-3333
▁circumstances	-3334
ras	-3335
▁July	-3336
▁anti	-3337
▁gone	-3338
▁laid	-3339
▁laun	-3340
encies	-3341
ajpayee	-3342
▁leading	-3343
▁matches	-3344
▁schools	-3345
▁physical	-3346
▁remained	-3347
▁constitutional	-3348
▁mah	-3349
▁pra	-3350
▁knew	-3351
▁sacr	-3352
imately	-3353
▁affect	-3354
▁critic	-3355
▁consequ	-3356
▁separate	-3357
▁southern	-3358
aya	-3359
wise	-3360
▁More	-3361
▁recent	-3362
▁threat	-3363
▁continu	-3364
▁surface	-3365
▁November	-3366
▁Vajpayee	-3367
▁assembly	-3368
▁pressure	-3369
▁provides	-3370
▁Feb	-3371
inent	-3372
▁dark	-3373
▁duty	-3374
porary	-3375
▁moral	-3376
▁spend	-3377
▁wants	-3378
▁aspect	-3379
▁shrine	-3380
▁supply	-3381
▁prevent	-3382
▁mer	-3383
▁pred	-3384
▁india	-3385
▁voice	-3386
▁larger	-3387
▁December	-3388
▁remember	-3389
▁protection	-3390
ND	-3391
sy	-3392
ene	-3393
ton	-3394
▁Vi	-3395
hers	-3396
▁Our	-3397
arily	-3398
order	-3399
▁hear	-3400
rative	-3401
▁adult	-3402
▁caste	-3403
▁crore	-3404
▁ideal	-3405
▁pillars	-3406
▁thousands	-3407
▁Afghanistan	-3408
60	-3409
▁Her	-3410
▁ded	-3411
ength	-3412
iance	-3413
olute	-3414
▁worth	-3415
▁Mahatma	-3416
▁obvious	-3417
▁warming	-3418
▁Gandhiji	-3419
▁exercise	-3420
▁returned	-3421
▁training	-3422
▁violence	-3423
▁connected	-3424
▁International	-3425
go	-3426
olly	-3427
▁Tod	-3428
▁die	-3429
▁sen	-3430
▁Inde	-3431
▁defe	-3432
▁equip	-3433
▁price	-3434
▁Bhagat	-3435
▁Google	-3436
▁extent	-3437
▁looked	-3438
▁elections	-3439
AR	-3440
SB	-3441
de	-3442
▁Ah	-3443
▁Ka	-3444
anding	-3445
▁pleas	-3446
ptember	-3447
▁advant	-3448
▁writer	-3449
▁mission	-3450
▁running	-3451
▁Ay	-3452
oted	-3453
rary	-3454
▁Aust	-3455
▁grand	-3456
▁remark	-3457
▁remains	-3458
▁witness	-3459
▁spiritual	-3460
▁atmosphere	-3461
cu	-3462
oh	-3463
iar	-3464
icro	-3465
inate	-3466
▁2000	-3467
▁jail	-3468
▁lack	-3469
ellect	-3470
▁upper	-3471
▁attend	-3472
▁accused	-3473
▁effects	-3474
▁measure	-3475
▁February	-3476
▁Ramayana	-3477
▁strength	-3478
▁jurisdiction	-3479
80	-3480
AS	-3481
ops	-3482
ests	-3483
▁fly	-3484
▁und	-3485
oming	-3486
▁outer	-3487
▁Before	-3488
▁active	-3489
▁learning	-3490
▁surround	-3491
ixt	-3492
▁Em	-3493
arya	-3494
omet	-3495
▁bed	-3496
▁box	-3497
▁fit	-3498
▁gas	-3499
anced	-3500
▁Work	-3501
▁iron	-3502
▁pick	-3503
▁looks	-3504
▁movie	-3505
▁distin	-3506
▁Western	-3507
▁Internet	-3508
▁leadership	-3509
▁responsibility	-3510
20	-3511
ams	-3512
iny	-3513
ient	-3514
orpor	-3515
oxide	-3516
▁fully	-3517
▁inner	-3518
▁mouth	-3519
▁novel	-3520
▁August	-3521
▁pollut	-3522
▁ordinary	-3523
.5	-3524
Ind	-3525
nal	-3526
▁Sp	-3527
itch	-3528
ondon	-3529
▁coun	-3530
▁moon	-3531
▁paid	-3532
▁genes	-3533
plement	-3534
▁access	-3535
▁numbers	-3536
▁existence	-3537
▁intellect	-3538
▁parliamentary	-3539
CO	-3540
IN	-3541
ped	-3542
cast	-3543
ighb	-3544
rees	-3545
▁Kum	-3546
▁Rav	-3547
▁ang	-3548
▁Port	-3549
▁late	-3550
airman	-3551
ground	-3552
▁aware	-3553
▁brain	-3554
▁doubt	-3555
▁lines	-3556
▁scale	-3557
▁Buddha	-3558
▁assist	-3559
▁garden	-3560
▁concent	-3561
▁mandapa	-3562
▁determin	-3563
▁religions	-3564
▁discussion	-3565
mi	-3566
odh	-3567
▁TV	-3568
▁Red	-3569
vered	-3570
▁surv	-3571
▁Party	-3572
▁joint	-3573
▁degree	-3574
▁destro	-3575
▁impact	-3576
▁review	-3577
▁Company	-3578
▁variety	-3579
▁criminal	-3580
▁resources	-3581
▁instrument	-3582
10	-3583
ners	-3584
▁hot	-3585
inery	-3586
verty	-3587
▁heavy	-3588
▁London	-3589
▁easily	-3590
▁length	-3591
▁neighb	-3592
▁poverty	-3593
▁website	-3594
▁interests	-3595
bit	-3596
hel	-3597
urs	-3598
apur	-3599
▁Var	-3600
oured	-3601
which	-3602
▁2007	-3603
▁songs	-3604
▁Mughal	-3605
▁articles	-3606
▁property	-3607
▁decisions	-3608
▁officials	-3609
▁collection	-3610
▁understanding	-3611
8,	-3612
▁pan	-3613
mpire	-3614
▁Also	-3615
▁miss	-3616
rorism	-3617
▁Vedic	-3618
▁drink	-3619
▁battle	-3620
▁helped	-3621
▁mostly	-3622
▁simply	-3623
▁classes	-3624
▁playing	-3625
▁judicial	-3626
▁standard	-3627
▁essential	-3628
rs	-3629
apers	-3630
odies	-3631
▁Such	-3632
▁bomb	-3633
▁foot	-3634
▁holy	-3635
▁join	-3636
▁rare	-3637
▁roof	-3638
▁integ	-3639
▁ready	-3640
▁carbon	-3641
▁Another	-3642
▁Cricket	-3643
▁Gujarat	-3644
▁consult	-3645
▁kingdom	-3646
▁maximum	-3647
▁mountain	-3648
▁starting	-3649
▁straight	-3650
▁committee	-3651
▁throughout	-3652
equ	-3653
ares	-3654
know	-3655
▁Int	-3656
▁Russ	-3657
▁eggs	-3658
▁wish	-3659
ctures	-3660
▁Relig	-3661
▁Today	-3662
▁conne	-3663
stitute	-3664
▁Second	-3665
▁beauty	-3666
▁morning	-3667
▁products	-3668
▁agreement	-3669
▁completed	-3670
▁agriculture	-3671
cell	-3672
pite	-3673
▁Arj	-3674
▁key	-3675
▁dram	-3676
▁Buddh	-3677
▁dance	-3678
▁eleph	-3679
▁frequ	-3680
▁moved	-3681
▁efforts	-3682
▁talking	-3683
▁northern	-3684
▁buildings	-3685
AL	-3686
ads	-3687
ips	-3688
aksh	-3689
ancy	-3690
▁Bar	-3691
▁era	-3692
▁mos	-3693
▁Your	-3694
▁Among	-3695
▁Bihar	-3696
▁union	-3697
essions	-3698
▁compar	-3699
▁custom	-3700
▁content	-3701
▁conflict	-3702
▁marriage	-3703
▁philosophy	-3704
amm	-3705
rad	-3706
tees	-3707
▁Mag	-3708
▁Reg	-3709
▁tend	-3710
▁cover	-3711
▁touch	-3712
▁crores	-3713
▁defence	-3714
▁everyone	-3715
▁prepared	-3716
▁implement	-3717
hra	-3718
▁1,	-3719
▁Gh	-3720
aped	-3721
ingu	-3722
▁Ali	-3723
▁ant	-3724
▁dig	-3725
ulate	-3726
▁Fort	-3727
▁status	-3728
▁particip	-3729
▁introduced	-3730
ja	-3731
pid	-3732
pri	-3733
rew	-3734
erve	-3735
▁hab	-3736
▁lif	-3737
▁mir	-3738
▁Like	-3739
▁chap	-3740
▁pric	-3741
▁pure	-3742
▁costs	-3743
▁views	-3744
▁decide	-3745
▁levels	-3746
▁ruling	-3747
▁villages	-3748
▁September	-3749
▁procedure	-3750
.2	-3751
30	-3752
ira	-3753
isc	-3754
▁ur	-3755
rief	-3756
▁See	-3757
▁cred	-3758
▁grant	-3759
▁sugar	-3760
▁ensure	-3761
▁points	-3762
▁History	-3763
▁Justice	-3764
ictionary	-3765
▁instance	-3766
▁proposal	-3767
▁software	-3768
▁effective	-3769
▁presented	-3770
abor	-3771
▁ign	-3772
itabh	-3773
urban	-3774
▁baby	-3775
▁diss	-3776
▁star	-3777
▁decade	-3778
▁minutes	-3779
▁accident	-3780
▁Department	-3781
▁principles	-3782
▁revolutionary	-3783
add	-3784
rel	-3785
aman	-3786
▁Bal	-3787
eness	-3788
▁acts	-3789
▁coop	-3790
▁vast	-3791
ansion	-3792
ulated	-3793
▁Courts	-3794
▁chance	-3795
▁correct	-3796
▁dollars	-3797
▁reduced	-3798
▁includes	-3799
▁previous	-3800
▁interested	-3801
▁governments	-3802
AN	-3803
ns	-3804
olk	-3805
▁Adv	-3806
▁Ass	-3807
▁Med	-3808
▁obl	-3809
▁capt	-3810
▁nine	-3811
lusion	-3812
▁Ganges	-3813
▁couple	-3814
▁symbol	-3815
▁twenty	-3816
▁unique	-3817
▁details	-3818
▁Although	-3819
▁absolute	-3820
▁released	-3821
emy	-3822
ume	-3823
dess	-3824
iers	-3825
▁Two	-3826
▁unc	-3827
agari	-3828
▁grew	-3829
▁host	-3830
▁pros	-3831
▁safe	-3832
▁soil	-3833
▁Houses	-3834
▁commer	-3835
▁doctor	-3836
▁favour	-3837
▁sister	-3838
▁Mahadevi	-3839
▁changing	-3840
▁transfer	-3841
▁equipment	-3842
ey	-3843
ken	-3844
“”,	-3845
ames	-3846
isms	-3847
▁Due	-3848
▁nom	-3849
▁suc	-3850
ested	-3851
▁Urdu	-3852
assion	-3853
▁Puran	-3854
▁empire	-3855
▁figure	-3856
▁punish	-3857
▁communal	-3858
▁creation	-3859
▁daughter	-3860
▁recently	-3861
▁followers	-3862
▁materials	-3863
avas	-3864
olid	-3865
teen	-3866
▁opt	-3867
▁estim	-3868
▁duties	-3869
▁season	-3870
▁convers	-3871
▁covered	-3872
▁perfect	-3873
▁results	-3874
▁examples	-3875
▁planning	-3876
▁profession	-3877
aved	-3878
▁Sun	-3879
▁veh	-3880
pping	-3881
▁Bose	-3882
▁argu	-3883
▁prec	-3884
▁wood	-3885
▁apart	-3886
▁decor	-3887
▁minor	-3888
▁steps	-3889
▁output	-3890
▁differences	-3891
▁manufacture	-3892
.1	-3893
atha	-3894
vant	-3895
▁Jaw	-3896
▁San	-3897
▁Som	-3898
imens	-3899
▁Cons	-3900
▁chrom	-3901
▁exact	-3902
▁films	-3903
▁appoint	-3904
▁arrange	-3905
▁devotion	-3906
▁internet	-3907
▁democratic	-3908
9,	-3909
ae	-3910
rut	-3911
reen	-3912
ucle	-3913
▁mal	-3914
▁mut	-3915
ander	-3916
▁myst	-3917
▁sell	-3918
▁vote	-3919
▁joined	-3920
▁merely	-3921
▁useful	-3922
▁succeed	-3923
▁systems	-3924
▁standing	-3925
▁Maharashtra	-3926
▁institutions	-3927
icip	-3928
ores	-3929
▁Des	-3930
▁buy	-3931
known	-3932
▁Code	-3933
▁cere	-3934
▁trou	-3935
▁virt	-3936
▁image	-3937
▁surpr	-3938
▁youth	-3939
▁govern	-3940
▁theory	-3941
▁Service	-3942
▁college	-3943
▁keeping	-3944
▁methods	-3945
▁offered	-3946
▁compared	-3947
▁contains	-3948
▁railways	-3949
▁immediately	-3950
een	-3951
hold	-3952
▁Ary	-3953
ctors	-3954
light	-3955
peror	-3956
▁fert	-3957
▁limit	-3958
▁Secret	-3959
▁events	-3960
▁undert	-3961
▁Britain	-3962
▁Section	-3963
▁players	-3964
▁smaller	-3965
▁management	-3966
ON	-3967
ils	-3968
▁27	-3969
enth	-3970
▁adj	-3971
aches	-3972
▁Iran	-3973
▁Only	-3974
▁Class	-3975
▁Earth	-3976
▁lived	-3977
▁prior	-3978
atively	-3979
▁highly	-3980
▁master	-3981
▁techni	-3982
▁learned	-3983
▁studies	-3984
▁hospital	-3985
▁sentence	-3986
▁machinery	-3987
▁telephone	-3988
▁commission	-3989
2,	-3990
rast	-3991
▁Tal	-3992
▁Val	-3993
▁lik	-3994
arian	-3995
▁Sind	-3996
▁cott	-3997
▁crow	-3998
▁race	-3999
▁Vedas	-4000
▁beings	-4001
▁factors	-4002
▁railway	-4003
▁regions	-4004
▁greatest	-4005
▁executive	-4006
▁provisions	-4007
2.	-4008
5,	-4009
agn	-4010
▁35	-4011
▁Pat	-4012
▁reb	-4013
ishes	-4014
▁June	-4015
▁bowl	-4016
▁fish	-4017
▁leaf	-4018
▁mist	-4019
▁noise	-4020
▁units	-4021
▁annual	-4022
▁bowler	-4023
▁sources	-4024
▁strateg	-4025
▁functions	-4026
6,	-4027
aly	-4028
rap	-4029
ray	-4030
load	-4031
oard	-4032
▁Any	-4033
▁Sah	-4034
▁boy	-4035
iture	-4036
▁phen	-4037
▁sleep	-4038
▁flight	-4039
▁imposs	-4040
▁Austral	-4041
▁machine	-4042
▁neither	-4043
▁Bachchan	-4044
▁occasion	-4045
▁whatever	-4046
▁newspaper	-4047
▁opposition	-4048
▁scientists	-4049
8.	-4050
io	-4051
bed	-4052
cape	-4053
road	-4054
▁THE	-4055
▁ban	-4056
▁wat	-4057
olved	-4058
▁Both	-4059
▁Jain	-4060
▁cold	-4061
▁links	-4062
▁rapid	-4063
▁Brahma	-4064
▁chromos	-4065
▁council	-4066
▁nations	-4067
▁entirely	-4068
▁individuals	-4069
1-	-4070
lal	-4071
Hind	-4072
aluk	-4073
iles	-4074
▁Sir	-4075
▁der	-4076
▁dry	-4077
aints	-4078
earch	-4079
▁peak	-4080
▁tool	-4081
▁accom	-4082
▁grass	-4083
▁phase	-4084
▁contem	-4085
▁diabet	-4086
▁scheme	-4087
▁sexual	-4088
▁benefit	-4089
▁explain	-4090
▁appropri	-4091
▁becoming	-4092
▁pictures	-4093
▁scholars	-4094
▁II	-4095
oran	-4096
▁cho	-4097
house	-4098
pired	-4099
▁repe	-4100
▁tons	-4101
change	-4102
▁banks	-4103
▁floor	-4104
▁insect	-4105
▁slight	-4106
▁starts	-4107
▁clearly	-4108
▁letters	-4109
▁weather	-4110
▁Japanese	-4111
▁constant	-4112
▁Therefore	-4113
3,	-4114
▁3.	-4115
hand	-4116
onom	-4117
▁aid	-4118
ifice	-4119
rical	-4120
▁gods	-4121
▁heat	-4122
▁rout	-4123
▁vary	-4124
▁damage	-4125
▁medium	-4126
▁showed	-4127
▁stated	-4128
▁vision	-4129
▁Bengali	-4130
▁Tribunal	-4131
▁although	-4132
▁families	-4133
▁features	-4134
▁subjects	-4135
▁principle	-4136
▁resolution	-4137
ahan	-4138
isis	-4139
tion	-4140
▁Mal	-4141
▁Rep	-4142
▁eye	-4143
ables	-4144
icode	-4145
inese	-4146
▁Veda	-4147
▁coll	-4148
▁quar	-4149
▁thir	-4150
▁chann	-4151
▁fixed	-4152
▁teeth	-4153
▁Besides	-4154
▁domestic	-4155
▁millions	-4156
ni	-4157
mat	-4158
▁31	-4159
▁Ob	-4160
anka	-4161
back	-4162
ocks	-4163
▁Abd	-4164
▁Lal	-4165
▁Pur	-4166
▁foc	-4167
itual	-4168
rates	-4169
▁docu	-4170
ranath	-4171
▁stick	-4172
▁vital	-4173
▁Social	-4174
▁causes	-4175
▁perman	-4176
▁cabinet	-4177
▁medical	-4178
▁primary	-4179
▁removed	-4180
▁communication	-4181
key	-4182
▁(1	-4183
lied	-4184
▁eld	-4185
▁gri	-4186
anged	-4187
▁Shar	-4188
urning	-4189
▁Marat	-4190
▁actor	-4191
▁apply	-4192
▁board	-4193
▁drugs	-4194
▁hearing	-4195
▁officer	-4196
▁organis	-4197
▁product	-4198
▁student	-4199
▁univers	-4200
▁diseases	-4201
▁organised	-4202
▁historical	-4203
▁authorities	-4204
▁architecture	-4205
ums	-4206
▁185	-4207
▁Pri	-4208
▁Sat	-4209
▁sup	-4210
▁thr	-4211
inces	-4212
▁1950	-4213
▁reve	-4214
▁Civil	-4215
▁radio	-4216
▁debate	-4217
▁reduce	-4218
▁connection	-4219
oti	-4220
▁bh	-4221
anta	-4222
osis	-4223
▁Sal	-4224
▁Son	-4225
▁Who	-4226
▁staff	-4227
▁labour	-4228
▁moving	-4229
▁wealth	-4230
▁eastern	-4231
▁expansion	-4232
▁terrorist	-4233
▁intellectual	-4234
resp	-4235
time	-4236
▁Lah	-4237
▁Mod	-4238
▁Sol	-4239
▁bran	-4240
▁domin	-4241
▁explo	-4242
▁horse	-4243
▁knows	-4244
▁multi	-4245
▁quant	-4246
▁online	-4247
▁elements	-4248
▁challenge	-4249
▁celebrated	-4250
▁impossible	-4251
▁description	-4252
EN	-4253
uni	-4254
vey	-4255
▁90	-4256
ahal	-4257
ille	-4258
play	-4259
wood	-4260
▁gar	-4261
▁sam	-4262
▁tal	-4263
▁save	-4264
▁demon	-4265
▁ocean	-4266
▁stuff	-4267
▁trust	-4268
▁compon	-4269
▁failed	-4270
entially	-4271
▁Persian	-4272
▁Conference	-4273
▁proceedings	-4274
9.	-4275
eer	-4276
▁Us	-4277
▁fu	-4278
▁raj	-4279
obile	-4280
▁acid	-4281
▁dial	-4282
▁blind	-4283
▁reven	-4284
▁Centre	-4285
▁Chaluk	-4286
▁altern	-4287
▁career	-4288
▁sevent	-4289
▁ability	-4290
▁imagine	-4291
▁setting	-4292
▁External	-4293
▁policies	-4294
▁universe	-4295
▁extremely	-4296
▁developing	-4297
'.	-4298
uty	-4299
wali	-4300
▁Nic	-4301
▁eat	-4302
▁sym	-4303
based	-4304
▁Char	-4305
▁hero	-4306
istics	-4307
▁fresh	-4308
▁micro	-4309
▁raise	-4310
▁ruled	-4311
▁prices	-4312
▁seemed	-4313
▁Amitabh	-4314
▁Jawahar	-4315
▁genetic	-4316
▁Independ	-4317
▁distance	-4318
▁observed	-4319
▁presence	-4320
▁announced	-4321
hab	-4322
▁aw	-4323
athi	-4324
oman	-4325
onal	-4326
viet	-4327
▁Bah	-4328
▁kid	-4329
ivity	-4330
odhya	-4331
▁jute	-4332
icians	-4333
overed	-4334
▁adequ	-4335
▁corru	-4336
▁rural	-4337
▁bodies	-4338
▁mechan	-4339
▁unless	-4340
▁Chinese	-4341
▁measures	-4342
▁substant	-4343
):	-4344
osh	-4345
▁80	-4346
asad	-4347
fort	-4348
lord	-4349
quir	-4350
▁App	-4351
▁Ban	-4352
▁wel	-4353
oking	-4354
▁Each	-4355
▁card	-4356
▁lose	-4357
▁murd	-4358
▁tube	-4359
▁cloth	-4360
▁coast	-4361
▁entry	-4362
▁waste	-4363
▁marble	-4364
▁opened	-4365
▁victim	-4366
▁Brahmin	-4367
▁totally	-4368
▁chemical	-4369
▁referred	-4370
▁advantage	-4371
▁provision	-4372
▁additional	-4373
▁constructed	-4374
zy	-4375
pta	-4376
xic	-4377
▁Az	-4378
▁Co	-4379
athy	-4380
icer	-4381
▁Def	-4382
▁Tur	-4383
othes	-4384
▁1947	-4385
iciary	-4386
▁Later	-4387
▁nucle	-4388
▁plans	-4389
▁track	-4390
▁agreed	-4391
▁inform	-4392
▁myself	-4393
▁phones	-4394
▁internal	-4395
▁childhood	-4396
▁facilities	-4397
▁permission	-4398
64	-4399
SS	-4400
da	-4401
arc	-4402
hai	-4403
sid	-4404
anes	-4405
▁Car	-4406
▁fat	-4407
astic	-4408
▁Cont	-4409
▁blue	-4410
▁cand	-4411
▁farm	-4412
▁tree	-4413
▁uses	-4414
▁weap	-4415
▁Apart	-4416
▁forth	-4417
▁sanct	-4418
▁France	-4419
▁anyone	-4420
▁budget	-4421
▁palace	-4422
▁rulers	-4423
▁seeing	-4424
▁batting	-4425
▁charges	-4426
▁healthy	-4427
▁partner	-4428
▁whereas	-4429
▁mountains	-4430
▁compassion	-4431
raf	-4432
rol	-4433
tha	-4434
▁Gl	-4435
▁Qu	-4436
iban	-4437
ping	-4438
▁Are	-4439
▁Pen	-4440
▁Rab	-4441
▁fru	-4442
▁joy	-4443
amuna	-4444
essed	-4445
▁Army	-4446
▁hour	-4447
▁util	-4448
▁prove	-4449
iciency	-4450
▁filled	-4451
▁safety	-4452
▁stands	-4453
▁values	-4454
▁arrived	-4455
▁reprodu	-4456
▁consists	-4457
▁resident	-4458
▁regarding	-4459
▁associated	-4460
▁controvers	-4461
▁pollutants	-4462
87	-4463
kay	-4464
miss	-4465
sych	-4466
vest	-4467
ysis	-4468
▁189	-4469
▁fle	-4470
▁City	-4471
▁hall	-4472
▁skin	-4473
▁Kumar	-4474
▁Liter	-4475
▁Those	-4476
▁poets	-4477
▁trees	-4478
▁reaction	-4479
▁competition	-4480
MS	-4481
era	-4482
ili	-4483
urt	-4484
▁70	-4485
▁Po	-4486
asty	-4487
rams	-4488
essor	-4489
▁hair	-4490
▁tomb	-4491
▁leaves	-4492
▁muslim	-4493
▁orders	-4494
▁Brahman	-4495
▁Marathi	-4496
▁happening	-4497
▁instruments	-4498
,”	-4499
iya	-4500
nam	-4501
ndra	-4502
▁Das	-4503
▁Rev	-4504
▁Once	-4505
▁wild	-4506
▁Right	-4507
▁appre	-4508
▁veget	-4509
▁Soviet	-4510
▁indian	-4511
▁ritual	-4512
▁release	-4513
▁congress	-4514
▁formation	-4515
▁operation	-4516
▁understood	-4517
OR	-4518
bs	-4519
apt	-4520
erv	-4521
▁BC	-4522
▁Sy	-4523
eter	-4524
▁Kan	-4525
▁Vir	-4526
▁vac	-4527
ureau	-4528
▁Dhar	-4529
▁prem	-4530
▁Nicob	-4531
▁cotton	-4532
▁crisis	-4533
▁models	-4534
▁narrow	-4535
▁verses	-4536
▁offence	-4537
▁supreme	-4538
▁existing	-4539
▁selected	-4540
▁technical	-4541
▁translation	-4542
..	-4543
bal	-4544
xts	-4545
▁28	-4546
▁km	-4547
ties	-4548
▁AIR	-4549
▁Mun	-4550
▁flu	-4551
after	-4552
▁firm	-4553
temple	-4554
▁medic	-4555
▁piece	-4556
▁spite	-4557
▁Office	-4558
▁Ayodhya	-4559
▁degrees	-4560
▁depends	-4561
▁emotion	-4562
▁Himalaya	-4563
▁arrested	-4564
▁diabetes	-4565
▁launched	-4566
▁reported	-4567
▁commercial	-4568
▁department	-4569
▁Subhashbabu	-4570
▁imperialism	-4571
IS	-4572
eta	-4573
wan	-4574
▁Hy	-4575
crib	-4576
vara	-4577
▁hop	-4578
itial	-4579
▁cool	-4580
▁sons	-4581
▁birds	-4582
▁girls	-4583
▁choice	-4584
▁closed	-4585
▁corpor	-4586
▁excess	-4587
▁prefer	-4588
▁relief	-4589
▁Special	-4590
▁refused	-4591
▁feelings	-4592
▁proposed	-4593
▁speaking	-4594
▁suddenly	-4595
▁Institute	-4596
▁permanent	-4597
▁potential	-4598
▁specially	-4599
▁Mahabharat	-4600
▁Ash	-4601
▁Haz	-4602
▁Rec	-4603
iving	-4604
▁York	-4605
▁ends	-4606
▁fasc	-4607
▁Child	-4608
▁avoid	-4609
pective	-4610
▁cultiv	-4611
▁indeed	-4612
▁listen	-4613
▁balance	-4614
▁sitting	-4615
▁carrying	-4616
▁fighting	-4617
▁Terrorism	-4618
▁evolution	-4619
▁reference	-4620
▁conference	-4621
6.	-4622
oty	-4623
utt	-4624
▁CO	-4625
cont	-4626
roud	-4627
▁Out	-4628
▁Pal	-4629
▁bul	-4630
urdas	-4631
usion	-4632
▁impr	-4633
▁mant	-4634
▁park	-4635
▁spok	-4636
▁Great	-4637
▁Panch	-4638
▁Ramal	-4639
▁Swami	-4640
▁facts	-4641
▁maybe	-4642
▁memory	-4643
▁journey	-4644
▁branches	-4645
▁composed	-4646
▁regional	-4647
orporation	-4648
▁expression	-4649
▁legislative	-4650
5.	-4651
ext	-4652
iki	-4653
law	-4654
var	-4655
▁ox	-4656
araj	-4657
grim	-4658
iling	-4659
while	-4660
▁Siva	-4661
▁royal	-4662
▁tools	-4663
▁cancer	-4664
▁mental	-4665
▁resist	-4666
▁stones	-4667
▁receive	-4668
▁appeared	-4669
▁bringing	-4670
▁teachers	-4671
▁committed	-4672
4.	-4673
adu	-4674
oph	-4675
aled	-4676
ffic	-4677
wing	-4678
▁DNA	-4679
▁cry	-4680
right	-4681
using	-4682
▁Prov	-4683
▁Shri	-4684
▁pron	-4685
▁unit	-4686
anging	-4687
hammed	-4688
▁Which	-4689
▁breat	-4690
▁brief	-4691
▁funds	-4692
▁minds	-4693
acharya	-4694
▁Public	-4695
▁destru	-4696
▁experi	-4697
▁Taliban	-4698
▁treated	-4699
ibilities	-4700
▁Research	-4701
▁attacked	-4702
▁contract	-4703
▁literary	-4704
▁relation	-4705
▁Australia	-4706
▁AD	-4707
▁arm	-4708
▁ram	-4709
ankar	-4710
▁Fund	-4711
▁pret	-4712
panish	-4713
▁Brahm	-4714
▁gases	-4715
▁psych	-4716
▁texts	-4717
▁train	-4718
mandapa	-4719
▁depart	-4720
▁interv	-4721
▁please	-4722
▁sought	-4723
ications	-4724
▁station	-4725
▁category	-4726
▁Allahabad	-4727
▁ourselves	-4728
11	-4729
duc	-4730
ris	-4731
▁Sa	-4732
▁Va	-4733
ques	-4734
vert	-4735
▁Sar	-4736
▁Ste	-4737
▁tea	-4738
mahal	-4739
anuman	-4740
▁Devan	-4741
▁plays	-4742
▁strik	-4743
▁actual	-4744
▁comment	-4745
▁feature	-4746
▁version	-4747
▁inspired	-4748
▁everybody	-4749
▁investment	-4750
▁appropriate	-4751
▁intelligence	-4752
ena	-4753
ola	-4754
▁SC	-4755
▁af	-4756
hens	-4757
itra	-4758
▁Tir	-4759
▁raw	-4760
adras	-4761
chool	-4762
rench	-4763
▁2001	-4764
▁Life	-4765
▁lake	-4766
▁myth	-4767
▁autom	-4768
▁saint	-4769
▁seats	-4770
▁urban	-4771
▁breast	-4772
▁forced	-4773
▁issued	-4774
▁masses	-4775
▁minimum	-4776
▁quickly	-4777
▁incident	-4778
▁landlord	-4779
▁ministry	-4780
ortunately	-4781
▁objective	-4782
▁foundation	-4783
▁influenced	-4784
▁administrative	-4785
▁representative	-4786
(19	-4787
dra	-4788
has	-4789
kan	-4790
▁wid	-4791
▁1990	-4792
▁spot	-4793
▁Polit	-4794
▁Trans	-4795
▁crime	-4796
▁favor	-4797
▁Arabic	-4798
▁Indust	-4799
▁desire	-4800
▁failure	-4801
▁achieved	-4802
▁entrance	-4803
▁normally	-4804
▁pleasure	-4805
▁writings	-4806
▁essentially	-4807
IL	-4808
▁Sm	-4809
osen	-4810
raft	-4811
▁Jay	-4812
▁Mem	-4813
▁uns	-4814
aging	-4815
erous	-4816
▁Home	-4817
▁arms	-4818
▁mills	-4819
▁store	-4820
▁usual	-4821
▁Surdas	-4822
▁desert	-4823
▁contain	-4824
▁exactly	-4825
▁patient	-4826
▁solution	-4827
▁converted	-4828
▁prominent	-4829
▁territory	-4830
▁distribution	-4831
.)	-4832
pic	-4833
▁UK	-4834
▁sky	-4835
ulkar	-4836
▁Sach	-4837
▁Will	-4838
▁gate	-4839
▁lots	-4840
▁plat	-4841
▁purs	-4842
acters	-4843
▁throw	-4844
▁title	-4845
▁butter	-4846
▁divers	-4847
▁sacred	-4848
▁taught	-4849
▁dioxide	-4850
▁element	-4851
▁opening	-4852
▁directed	-4853
▁division	-4854
▁imprison	-4855
▁phenomen	-4856
▁restrict	-4857
▁dedicated	-4858
▁Committees	-4859
▁experiment	-4860
▁considerable	-4861
▁organisations	-4862
3.	-4863
It	-4864
ME	-4865
PA	-4866
je	-4867
ny	-4868
ota	-4869
udh	-4870
aded	-4871
▁300	-4872
▁vag	-4873
arant	-4874
eties	-4875
force	-4876
idden	-4877
▁Nare	-4878
▁ille	-4879
▁symp	-4880
▁faces	-4881
uration	-4882
▁regist	-4883
▁street	-4884
▁equally	-4885
▁follows	-4886
▁markets	-4887
▁proport	-4888
▁Chairman	-4889
▁obtained	-4890
▁movements	-4891
▁sacrifice	-4892
▁supported	-4893
-2	-4894
adh	-4895
ule	-4896
▁Ty	-4897
▁ec	-4898
etan	-4899
itha	-4900
room	-4901
▁amb	-4902
nding	-4903
oring	-4904
osite	-4905
▁1980	-4906
▁Educ	-4907
▁guid	-4908
▁aging	-4909
▁entit	-4910
▁ruler	-4911
▁signs	-4912
▁stock	-4913
▁table	-4914
respond	-4915
▁afford	-4916
▁bigger	-4917
▁branch	-4918
▁candid	-4919
▁fields	-4920
▁senior	-4921
▁volunt	-4922
▁entered	-4923
▁founded	-4924
▁designed	-4925
▁positive	-4926
▁standards	-4927
▁Devanagari	-4928
▁employment	-4929
inc	-4930
tes	-4931
ukh	-4932
wal	-4933
▁32	-4934
aken	-4935
phas	-4936
▁Dem	-4937
▁Inc	-4938
▁ble	-4939
▁cow	-4940
▁map	-4941
▁org	-4942
▁pul	-4943
▁rid	-4944
▁sik	-4945
ellow	-4946
hered	-4947
irect	-4948
▁Tend	-4949
▁sett	-4950
▁shar	-4951
urally	-4952
▁Koran	-4953
▁Solar	-4954
▁proud	-4955
temples	-4956
▁Madras	-4957
▁babies	-4958
▁brings	-4959
▁expend	-4960
▁severe	-4961
▁Similar	-4962
▁citizen	-4963
▁connect	-4964
▁dischar	-4965
▁passing	-4966
▁adequate	-4967
▁brothers	-4968
▁recorded	-4969
▁suitable	-4970
▁Christian	-4971
▁characters	-4972
▁remarkable	-4973
▁structures	-4974
▁Legislative	-4975
▁consciousness	-4976
iy	-4977
pro	-4978
appe	-4979
iant	-4980
▁Che	-4981
▁Yet	-4982
▁cru	-4983
ician	-4984
izing	-4985
ptoms	-4986
▁Geor	-4987
▁figh	-4988
▁flat	-4989
▁merg	-4990
▁note	-4991
▁Third	-4992
▁crowd	-4993
▁paint	-4994
▁double	-4995
▁planet	-4996
▁resign	-4997
ulations	-4998
▁Hindust	-4999
▁chapter	-5000
▁demands	-5001
▁evening	-5002
▁waiting	-5003
▁teaching	-5004
▁Executive	-5005
▁Ramalinga	-5006
▁encourage	-5007
▁entertain	-5008
▁correspond	-5009
▁performance	-5010
-3	-5011
Ch	-5012
ula	-5013
van	-5014
▁29	-5015
▁Don	-5016
▁Tem	-5017
▁1999	-5018
▁Fore	-5019
▁pack	-5020
▁Shiva	-5021
▁armed	-5022
▁colon	-5023
▁color	-5024
▁excav	-5025
▁Empire	-5026
▁approx	-5027
▁begins	-5028
▁heaven	-5029
▁humans	-5030
▁oldest	-5031
▁settle	-5032
▁Unicode	-5033
▁command	-5034
▁secular	-5035
▁traffic	-5036
▁attitude	-5037
▁positions	-5038
▁Corporation	-5039
▁Independence	-5040
▁representatives	-5041
-9	-5042
77	-5043
adur	-5044
iled	-5045
▁lie	-5046
▁log	-5047
icted	-5048
▁lawy	-5049
▁muse	-5050
▁user	-5051
▁Colle	-5052
▁catch	-5053
▁innov	-5054
▁overs	-5055
▁sight	-5056
General	-5057
issions	-5058
▁broken	-5059
▁chosen	-5060
▁credit	-5061
▁facing	-5062
▁island	-5063
▁permit	-5064
▁appears	-5065
▁largely	-5066
▁passion	-5067
▁stopped	-5068
▁believes	-5069
▁consumer	-5070
▁complaint	-5071
▁estimated	-5072
▁gradually	-5073
▁specimens	-5074
▁controlled	-5075
iger	-5076
▁dro	-5077
▁hun	-5078
antic	-5079
eless	-5080
orial	-5081
▁copy	-5082
▁magn	-5083
▁peas	-5084
▁sick	-5085
▁wear	-5086
ishing	-5087
ourage	-5088
▁helps	-5089
▁kings	-5090
▁patri	-5091
▁solid	-5092
▁tells	-5093
▁convin	-5094
▁expert	-5095
▁pretty	-5096
▁prosec	-5097
▁reject	-5098
▁Develop	-5099
▁despite	-5100
▁federal	-5101
▁willing	-5102
▁improved	-5103
▁Ministers	-5104
▁certainly	-5105
▁confidence	-5106
EA	-5107
had	-5108
▁ma	-5109
ibly	-5110
▁Dal	-5111
hetic	-5112
▁1960	-5113
▁Book	-5114
▁Pall	-5115
▁Sita	-5116
▁epic	-5117
▁stup	-5118
olkata	-5119
▁grown	-5120
▁roads	-5121
▁conven	-5122
▁emphas	-5123
▁interp	-5124
▁mumbai	-5125
▁propag	-5126
▁capable	-5127
▁comfort	-5128
▁counter	-5129
▁deliber	-5130
▁guarant	-5131
▁opposed	-5132
▁pilgrim	-5133
▁Muhammad	-5134
▁educated	-5135
▁investig	-5136
▁symptoms	-5137
▁Secretary	-5138
▁explained	-5139
▁university	-5140
2)	-5141
4,	-5142
61	-5143
uz	-5144
ees	-5145
ilm	-5146
▁IN	-5147
alam	-5148
ener	-5149
umps	-5150
▁Nav	-5151
▁eth	-5152
▁sul	-5153
cript	-5154
enses	-5155
▁Prof	-5156
▁band	-5157
▁bear	-5158
▁club	-5159
▁earn	-5160
▁none	-5161
▁sole	-5162
acchan	-5163
ifying	-5164
▁dress	-5165
▁indig	-5166
▁metal	-5167
▁wings	-5168
▁claims	-5169
▁mandap	-5170
standing	-5171
▁subsequ	-5172
▁audience	-5173
▁projects	-5174
▁otherwise	-5175
▁performed	-5176
▁principal	-5177
▁transform	-5178
▁communities	-5179
agh	-5180
asa	-5181
▁Ac	-5182
This	-5183
mits	-5184
otic	-5185
▁Nar	-5186
▁mel	-5187
agers	-5188
iform	-5189
iment	-5190
oples	-5191
▁Sant	-5192
▁Shiv	-5193
▁gain	-5194
▁inev	-5195
▁jobs	-5196
aviour	-5197
ousing	-5198
▁River	-5199
▁delay	-5200
▁score	-5201
▁stars	-5202
▁Health	-5203
▁summer	-5204
▁appreci	-5205
▁forests	-5206
▁imports	-5207
▁constitu	-5208
▁suffering	-5209
▁institution	-5210
▁legislation	-5211
▁consideration	-5212
▁establishment	-5213
IC	-5214
cks	-5215
ila	-5216
▁Ra	-5217
▁UN	-5218
look	-5219
this	-5220
▁Bab	-5221
▁Sik	-5222
▁pig	-5223
abled	-5224
arkar	-5225
ounce	-5226
overy	-5227
quiry	-5228
▁blow	-5229
▁cart	-5230
▁code	-5231
▁fulf	-5232
▁impl	-5233
▁seat	-5234
nament	-5235
▁Arjun	-5236
▁Asian	-5237
▁Indra	-5238
▁calls	-5239
▁cloud	-5240
▁older	-5241
▁pages	-5242
▁French	-5243
▁League	-5244
▁compre	-5245
ensation	-5246
▁demonst	-5247
▁discipl	-5248
▁exports	-5249
▁figures	-5250
▁benefits	-5251
▁somebody	-5252
▁constituted	-5253
IT	-5254
Mus	-5255
▁4.	-5256
▁MP	-5257
▁188	-5258
▁Dis	-5259
▁Mot	-5260
▁Sav	-5261
▁Til	-5262
▁lib	-5263
▁rub	-5264
azing	-5265
▁bott	-5266
▁diet	-5267
▁goal	-5268
uation	-5269
▁Ahmed	-5270
▁conqu	-5271
▁drawn	-5272
▁reser	-5273
▁users	-5274
▁Yamuna	-5275
▁abroad	-5276
▁cattle	-5277
▁affairs	-5278
▁awarded	-5279
▁corners	-5280
▁holding	-5281
▁leaving	-5282
▁definite	-5283
▁download	-5284
▁entitled	-5285
▁sanskrit	-5286
▁supposed	-5287
▁providing	-5288
▁suggested	-5289
▁sculptures	-5290
LA	-5291
kh	-5292
oe	-5293
oj	-5294
oom	-5295
▁Aj	-5296
andi	-5297
iced	-5298
oned	-5299
rant	-5300
▁alt	-5301
▁Supp	-5302
▁beat	-5303
▁clim	-5304
▁monu	-5305
▁Lanka	-5306
▁enemy	-5307
▁faced	-5308
▁sweet	-5309
ception	-5310
istrate	-5311
▁forget	-5312
▁slowly	-5313
▁initial	-5314
▁victory	-5315
▁critical	-5316
▁director	-5317
▁external	-5318
▁hundreds	-5319
▁opposite	-5320
▁yourself	-5321
▁Tendulkar	-5322
▁immediate	-5323
▁45	-5324
hatt	-5325
quar	-5326
▁aer	-5327
▁arg	-5328
▁Kath	-5329
▁burd	-5330
▁rank	-5331
ashing	-5332
course	-5333
cribed	-5334
▁lands	-5335
▁manif	-5336
▁revol	-5337
▁serve	-5338
entions	-5339
▁advent	-5340
▁bacter	-5341
▁vagina	-5342
ollywood	-5343
▁Further	-5344
▁flowers	-5345
▁putting	-5346
indranath	-5347
▁combined	-5348
▁cultures	-5349
▁discover	-5350
▁platform	-5351
▁purposes	-5352
▁destruction	-5353
▁personality	-5354
-4	-5355
3)	-5356
66	-5357
▁Mon	-5358
▁rad	-5359
▁upl	-5360
amber	-5361
enger	-5362
lease	-5363
ricts	-5364
▁Last	-5365
▁Main	-5366
▁brow	-5367
▁gene	-5368
▁lord	-5369
▁drive	-5370
▁resol	-5371
▁stood	-5372
▁teams	-5373
▁trave	-5374
erences	-5375
▁expand	-5376
▁images	-5377
▁reader	-5378
▁rising	-5379
▁actions	-5380
▁advance	-5381
▁bowling	-5382
▁captain	-5383
▁granted	-5384
▁prevail	-5385
▁reports	-5386
▁walking	-5387
▁Ministry	-5388
▁Religion	-5389
▁emission	-5390
▁exchange	-5391
▁basically	-5392
▁Literature	-5393
▁appearance	-5394
▁translated	-5395
1,	-5396
ctr	-5397
ora	-5398
ogue	-5399
▁Bur	-5400
▁Cap	-5401
▁Pan	-5402
▁Rem	-5403
▁ice	-5404
▁sin	-5405
India	-5406
flies	-5407
▁1930	-5408
▁fill	-5409
▁fing	-5410
▁rear	-5411
▁ship	-5412
▁warm	-5413
astern	-5414
▁Kabul	-5415
▁block	-5416
▁hence	-5417
▁homes	-5418
▁rates	-5419
▁Prasad	-5420
▁divide	-5421
▁formal	-5422
▁hardly	-5423
▁context	-5424
▁dynasty	-5425
▁objects	-5426
▁Republic	-5427
▁analysis	-5428
▁destroyed	-5429
▁Jawaharlal	-5430
▁traditions	-5431
▁Information	-5432
▁alternative	-5433
▁expenditure	-5434
▁characteristic	-5435
ls	-5436
ien	-5437
pes	-5438
▁Ib	-5439
unch	-5440
wide	-5441
▁Rai	-5442
▁Whe	-5443
▁Bank	-5444
▁Look	-5445
▁Nadu	-5446
▁brid	-5447
artial	-5448
asters	-5449
▁ahead	-5450
▁worse	-5451
▁yield	-5452
▁border	-5453
▁calcul	-5454
▁elabor	-5455
▁intend	-5456
▁marked	-5457
▁occurs	-5458
▁preced	-5459
▁stages	-5460
▁valley	-5461
▁Hanuman	-5462
▁aspects	-5463
▁customs	-5464
▁privile	-5465
▁tourist	-5466
▁uniform	-5467
▁attached	-5468
▁interpret	-5469
UR	-5470
ING	-5471
eal	-5472
lin	-5473
ager	-5474
oles	-5475
▁Ant	-5476
▁Bra	-5477
▁fra	-5478
▁nav	-5479
Hindi	-5480
ullah	-5481
▁Devi	-5482
▁Four	-5483
▁Karn	-5484
▁Muse	-5485
▁About	-5486
▁Board	-5487
▁frame	-5488
▁corner	-5489
▁fourth	-5490
▁remind	-5491
▁farmers	-5492
▁helping	-5493
▁trouble	-5494
▁admitted	-5495
▁elephant	-5496
▁geograph	-5497
▁relating	-5498
▁ultimate	-5499
▁dangerous	-5500
▁expressed	-5501
▁corruption	-5502
▁surrounded	-5503
▁television	-5504
▁educational	-5505
(1	-5506
sp	-5507
cip	-5508
fare	-5509
itya	-5510
pers	-5511
veda	-5512
▁Add	-5513
▁RSS	-5514
atell	-5515
ushed	-5516
▁Sikh	-5517
▁gift	-5518
▁wait	-5519
▁acted	-5520
▁advoc	-5521
▁ended	-5522
aration	-5523
▁Russia	-5524
▁accord	-5525
▁asking	-5526
▁minute	-5527
▁united	-5528
▁College	-5529
▁disappe	-5530
▁display	-5531
▁extended	-5532
▁facility	-5533
▁partners	-5534
▁properly	-5535
▁thoughts	-5536
▁Education	-5537
▁behaviour	-5538
▁judiciary	-5539
▁practices	-5540
▁generations	-5541
▁agricultural	-5542
▁contribution	-5543
▁opportunities	-5544
aul	-5545
edd	-5546
▁Sum	-5547
▁dog	-5548
anges	-5549
ifted	-5550
ivals	-5551
▁Luck	-5552
▁tiss	-5553
called	-5554
▁Langu	-5555
▁leads	-5556
▁loved	-5557
▁pitch	-5558
ificial	-5559
▁George	-5560
▁assess	-5561
▁defend	-5562
▁profit	-5563
▁spoken	-5564
▁feeding	-5565
▁finding	-5566
▁kilomet	-5567
▁confined	-5568
▁amendment	-5569
▁conducted	-5570
▁continues	-5571
▁emergency	-5572
▁listening	-5573
▁greenhouse	-5574
▁sufficient	-5575
▁cooperation	-5576
▁possibility	-5577
▁organization	-5578
▁professional	-5579
7.	-5580
aur	-5581
ema	-5582
gin	-5583
vis	-5584
▁CA	-5585
▁ak	-5586
andu	-5587
aste	-5588
onse	-5589
rupt	-5590
with	-5591
▁Day	-5592
▁Tib	-5593
arasw	-5594
iring	-5595
ishth	-5596
▁Vive	-5597
▁clos	-5598
▁flag	-5599
▁lady	-5600
▁ring	-5601
▁thor	-5602
▁wing	-5603
▁Laksh	-5604
▁Mexic	-5605
▁camel	-5606
▁decre	-5607
▁mirac	-5608
▁purch	-5609
▁turns	-5610
▁Commun	-5611
▁pieces	-5612
▁sovere	-5613
▁stream	-5614
▁showing	-5615
▁writers	-5616
▁creating	-5617
▁describe	-5618
▁universal	-5619
▁background	-5620
▁definition	-5621
▁determined	-5622
-5	-5623
-8	-5624
gn	-5625
za	-5626
You	-5627
got	-5628
gra	-5629
ica	-5630
dule	-5631
fall	-5632
inik	-5633
zone	-5634
▁Ker	-5635
▁SMS	-5636
▁Vid	-5637
▁Vij	-5638
▁vig	-5639
prene	-5640
stone	-5641
▁2008	-5642
▁Soci	-5643
▁Swar	-5644
▁drug	-5645
▁fuel	-5646
▁shot	-5647
▁twel	-5648
▁depos	-5649
rations	-5650
reprene	-5651
▁choose	-5652
▁escape	-5653
▁lesson	-5654
▁mosque	-5655
▁remove	-5656
▁volume	-5657
▁yellow	-5658
atically	-5659
▁Upanish	-5660
▁nuclear	-5661
▁response	-5662
▁slightly	-5663
▁substantial	-5664
▁contemporary	-5665
-19	-5666
SBN	-5667
aha	-5668
uta	-5669
▁ax	-5670
akar	-5671
awla	-5672
hari	-5673
uous	-5674
what	-5675
▁187	-5676
▁Ras	-5677
▁Sha	-5678
▁rom	-5679
luded	-5680
▁Till	-5681
▁elim	-5682
▁evil	-5683
▁mand	-5684
▁shop	-5685
▁sust	-5686
▁tail	-5687
ashion	-5688
rating	-5689
▁Bills	-5690
▁ganga	-5691
▁keeps	-5692
▁miles	-5693
▁surre	-5694
▁Deputy	-5695
▁Lahore	-5696
▁Middle	-5697
▁acting	-5698
▁fertil	-5699
▁limits	-5700
▁linked	-5701
▁scored	-5702
▁Nicobar	-5703
▁Working	-5704
▁absence	-5705
▁courage	-5706
▁reforms	-5707
▁streets	-5708
▁telling	-5709
▁withdra	-5710
▁detailed	-5711
▁numerous	-5712
▁stations	-5713
▁organisms	-5714
▁remaining	-5715
▁components	-5716
▁discovered	-5717
▁Legislature	-5718
68	-5719
EC	-5720
emb	-5721
▁IP	-5722
bles	-5723
umin	-5724
▁Joh	-5725
▁Ver	-5726
▁hom	-5727
▁irr	-5728
orous	-5729
ulous	-5730
uraan	-5731
▁Film	-5732
▁Kalp	-5733
▁suit	-5734
aching	-5735
orders	-5736
▁advis	-5737
▁falls	-5738
▁larva	-5739
▁simpl	-5740
▁twice	-5741
▁Diwali	-5742
▁Series	-5743
▁prepar	-5744
▁Kolkata	-5745
▁Perhaps	-5746
▁applied	-5747
▁assumed	-5748
▁decades	-5749
▁journal	-5750
▁killing	-5751
▁studied	-5752
▁Mohammed	-5753
▁identity	-5754
▁indicate	-5755
▁qualities	-5756
▁dictionary	-5757
▁improvement	-5758
▁introduction	-5759
HP	-5760
rd	-5761
aks	-5762
anc	-5763
asm	-5764
iet	-5765
oli	-5766
akti	-5767
avan	-5768
eper	-5769
uled	-5770
ules	-5771
▁Bet	-5772
▁Bus	-5773
▁Nob	-5774
▁Pad	-5775
▁lic	-5776
▁sad	-5777
craft	-5778
itals	-5779
oting	-5780
place	-5781
▁Azad	-5782
▁Gree	-5783
▁fram	-5784
▁gram	-5785
▁pair	-5786
▁tall	-5787
icipal	-5788
▁Sonia	-5789
▁broke	-5790
▁enorm	-5791
▁guard	-5792
▁habit	-5793
▁kilog	-5794
▁march	-5795
▁truly	-5796
▁Mobile	-5797
▁museum	-5798
▁organs	-5799
▁upload	-5800
▁Andaman	-5801
▁charged	-5802
▁dismiss	-5803
▁goddess	-5804
▁pointed	-5805
▁weapons	-5806
▁Hinduism	-5807
▁acquired	-5808
▁advanced	-5809
▁distingu	-5810
▁extraord	-5811
▁soldiers	-5812
▁watching	-5813
▁assistance	-5814
▁prosecution	-5815
▁difficulties	-5816
gy	-5817
jee	-5818
▁OF	-5819
atio	-5820
esty	-5821
garh	-5822
▁500	-5823
▁Ins	-5824
▁Nag	-5825
▁Ref	-5826
▁TED	-5827
▁ves	-5828
▁vul	-5829
ataka	-5830
▁Fire	-5831
▁Mand	-5832
▁dign	-5833
▁drop	-5834
▁mood	-5835
▁snow	-5836
ixture	-5837
urance	-5838
▁elder	-5839
▁robot	-5840
▁bought	-5841
▁burden	-5842
▁couldn	-5843
▁defeat	-5844
▁factor	-5845
▁unlike	-5846
▁Science	-5847
▁answers	-5848
▁clothes	-5849
▁compuls	-5850
▁evident	-5851
▁illegal	-5852
▁leaflet	-5853
▁portion	-5854
▁shrines	-5855
▁visible	-5856
▁Northern	-5857
▁agencies	-5858
▁apparent	-5859
▁familiar	-5860
▁processes	-5861
▁provinces	-5862
▁operations	-5863
▁nationalism	-5864
▁represented	-5865
▁civilization	-5866
▁environmental	-5867
65	-5868
azi	-5869
unk	-5870
▁75	-5871
ideo	-5872
▁Dar	-5873
▁Div	-5874
▁Hel	-5875
▁Pra	-5876
ional	-5877
rogen	-5878
umped	-5879
▁cars	-5880
▁dust	-5881
▁sequ	-5882
▁Abdul	-5883
▁Assam	-5884
▁Count	-5885
▁Gupta	-5886
▁alleg	-5887
▁exhib	-5888
▁items	-5889
▁scene	-5890
▁stret	-5891
▁Please	-5892
▁School	-5893
▁behalf	-5894
▁exceed	-5895
▁explan	-5896
▁faster	-5897
▁illust	-5898
▁served	-5899
iniketan	-5900
▁amazing	-5901
▁calling	-5902
▁greatly	-5903
▁peoples	-5904
▁revenue	-5905
▁sikhara	-5906
▁visited	-5907
▁document	-5908
▁realised	-5909
▁difficulty	-5910
▁entreprene	-5911
▁maintained	-5912
▁Development	-5913
▁complicated	-5914
▁requirements	-5915
IM	-5916
ga	-5917
wa	-5918
ION	-5919
arh	-5920
▁Fe	-5921
alle	-5922
term	-5923
tery	-5924
west	-5925
▁Muk	-5926
▁yes	-5927
▁Over	-5928
▁Stud	-5929
▁Tube	-5930
▁clin	-5931
▁rose	-5932
▁scen	-5933
▁vent	-5934
▁Italy	-5935
▁arrow	-5936
▁categ	-5937
▁crops	-5938
▁noted	-5939
▁smoke	-5940
▁wheat	-5941
▁Kerala	-5942
▁Scient	-5943
▁adults	-5944
▁retain	-5945
▁finance	-5946
▁messages	-5947
▁attracted	-5948
▁criticism	-5949
▁discussed	-5950
▁organized	-5951
▁containing	-5952
▁appointment	-5953
▁collections	-5954
▁Parliamentary	-5955
asi	-5956
icy	-5957
pet	-5958
ulf	-5959
▁2,	-5960
▁Fl	-5961
▁ST	-5962
▁kn	-5963
ford	-5964
iber	-5965
umes	-5966
▁Hit	-5967
▁Jag	-5968
▁Kam	-5969
▁Mos	-5970
▁Sen	-5971
▁adh	-5972
▁mad	-5973
▁tro	-5974
agues	-5975
eches	-5976
icate	-5977
▁1984	-5978
▁Tele	-5979
▁boys	-5980
▁rupe	-5981
▁sets	-5982
▁tick	-5983
daipur	-5984
▁Tilak	-5985
▁conce	-5986
▁drama	-5987
▁magaz	-5988
▁reign	-5989
▁rough	-5990
▁Associ	-5991
▁Police	-5992
▁attain	-5993
▁bright	-5994
▁exclus	-5995
▁unable	-5996
atellite	-5997
▁Cabinet	-5998
▁gardens	-5999
▁grounds	-6000
▁herself	-6001
▁knowing	-6002
▁equality	-6003
▁guidance	-6004
▁regarded	-6005
▁suffered	-6006
▁Sometimes	-6007
▁sculpture	-6008
▁temporary	-6009
▁punishment	-6010
▁controversy	-6011
▁intercourse	-6012
▁imprisonment	-6013
inn	-6014
▁IS	-6015
▁Ke	-6016
cend	-6017
lets	-6018
▁Gra	-6019
▁Mam	-6020
▁rig	-6021
isher	-6022
▁edge	-6023
▁lamp	-6024
idency	-6025
ladesh	-6026
▁Mount	-6027
▁Techn	-6028
▁begun	-6029
▁recon	-6030
▁sabha	-6031
▁votes	-6032
▁Andhra	-6033
▁carved	-6034
▁caught	-6035
▁device	-6036
▁excell	-6037
▁gather	-6038
▁honour	-6039
▁suffer	-6040
▁attacks	-6041
▁dispute	-6042
▁ordered	-6043
▁sanctum	-6044
▁settled	-6045
▁unknown	-6046
▁distinct	-6047
▁duration	-6048
▁humanity	-6049
▁precious	-6050
ifications	-6051
▁Similarly	-6052
▁technique	-6053
▁engineering	-6054
▁imagination	-6055
▁recommended	-6056
▁instructions	-6057
▁respectively	-6058
atel	-6059
▁...	-6060
▁Ele	-6061
▁nit	-6062
class	-6063
eries	-6064
ounds	-6065
▁guys	-6066
▁hill	-6067
▁stro	-6068
▁flour	-6069
▁hered	-6070
▁mixed	-6071
▁sulph	-6072
▁deeply	-6073
▁disapp	-6074
▁divine	-6075
▁golden	-6076
cription	-6077
▁Bacchan	-6078
▁burning	-6079
▁emerged	-6080
▁Pakistani	-6081
▁convinced	-6082
▁neighbour	-6083
▁registered	-6084
40	-6085
Is	-6086
MP	-6087
US	-6088
▁Ed	-6089
adow	-6090
ball	-6091
ears	-6092
itis	-6093
▁Sin	-6094
▁wis	-6095
anned	-6096
uable	-6097
▁1977	-6098
▁bull	-6099
▁mole	-6100
▁nice	-6101
▁rice	-6102
▁sixt	-6103
▁wage	-6104
▁Human	-6105
▁Indus	-6106
▁Major	-6107
▁aband	-6108
▁chair	-6109
▁compr	-6110
▁cycle	-6111
▁herit	-6112
▁innoc	-6113
▁linga	-6114
▁sniff	-6115
▁export	-6116
▁nobody	-6117
▁strike	-6118
▁Finance	-6119
▁Kalpana	-6120
▁disturb	-6121
▁factory	-6122
▁planned	-6123
▁records	-6124
▁request	-6125
▁Sessions	-6126
▁expenses	-6127
▁patterns	-6128
▁somewhat	-6129
▁districts	-6130
▁extension	-6131
▁increases	-6132
▁represents	-6133
▁association	-6134
▁consumption	-6135
▁experiments	-6136
▁AS	-6137
▁TO	-6138
mend	-6139
oral	-6140
oshi	-6141
ulin	-6142
well	-6143
▁150	-6144
ensus	-6145
entle	-6146
umber	-6147
▁1000	-6148
▁Babu	-6149
▁cook	-6150
▁folk	-6151
▁pull	-6152
▁spin	-6153
▁stim	-6154
odhpur	-6155
rastru	-6156
▁Along	-6157
▁brick	-6158
▁daugh	-6159
▁dynam	-6160
▁inher	-6161
▁mould	-6162
▁ordin	-6163
▁spoke	-6164
▁tooth	-6165
▁Indira	-6166
▁Museum	-6167
▁Portug	-6168
▁inspir	-6169
▁movies	-6170
▁murder	-6171
▁papers	-6172
▁voting	-6173
quarters	-6174
▁deliver	-6175
▁invited	-6176
▁mixture	-6177
▁realise	-6178
▁earliest	-6179
▁finished	-6180
▁heritage	-6181
▁repeated	-6182
▁resulted	-6183
▁belonging	-6184
▁daughters	-6185
▁festivals	-6186
▁witnesses	-6187
▁wonderful	-6188
▁comprehens	-6189
▁reasonable	-6190
▁distinction	-6191
bl	-6192
ahi	-6193
aug	-6194
fly	-6195
hus	-6196
oto	-6197
rog	-6198
agra	-6199
aran	-6200
cles	-6201
ects	-6202
edia	-6203
part	-6204
rier	-6205
soon	-6206
▁AND	-6207
▁Vis	-6208
▁bag	-6209
▁hat	-6210
idity	-6211
itate	-6212
▁Durg	-6213
▁List	-6214
▁pace	-6215
lement	-6216
▁Water	-6217
▁index	-6218
▁meter	-6219
▁penet	-6220
▁solve	-6221
▁bottom	-6222
▁deaths	-6223
▁incred	-6224
▁African	-6225
▁Society	-6226
▁derived	-6227
▁strange	-6228
▁employed	-6229
▁enormous	-6230
▁relevant	-6231
▁sections	-6232
▁speeches	-6233
▁strategy	-6234
▁vehicles	-6235
▁classical	-6236
▁dependent	-6237
▁emissions	-6238
▁judgement	-6239
▁naturally	-6240
▁scientist	-6241
▁socialism	-6242
▁directions	-6243
▁eventually	-6244
▁combination	-6245
▁progressive	-6246
▁manufacturing	-6247
▁transportation	-6248
12	-6249
DA	-6250
HS	-6251
500	-6252
iph	-6253
oan	-6254
ilty	-6255
ocol	-6256
olit	-6257
▁gal	-6258
▁pup	-6259
erate	-6260
mandu	-6261
▁Five	-6262
▁Gita	-6263
▁Soon	-6264
▁ages	-6265
▁beet	-6266
▁bind	-6267
▁exec	-6268
▁furn	-6269
▁shut	-6270
▁Group	-6271
▁Times	-6272
▁admit	-6273
▁arbit	-6274
▁incom	-6275
▁mathe	-6276
▁milit	-6277
▁talks	-6278
▁terri	-6279
oration	-6280
▁astron	-6281
▁latest	-6282
▁remote	-6283
▁skills	-6284
▁strict	-6285
▁vessel	-6286
▁Nations	-6287
▁liberal	-6288
▁respond	-6289
▁victims	-6290
▁wickets	-6291
▁Buddhist	-6292
▁Tajmahal	-6293
▁captured	-6294
▁thorough	-6295
▁Himalayas	-6296
▁everywhere	-6297
▁terrorists	-6298
▁significance	-6299
▁extraordinary	-6300
1.	-6301
but	-6302
eah	-6303
pat	-6304
rik	-6305
▁5.	-6306
▁6.	-6307
▁ii	-6308
ammu	-6309
▁cha	-6310
▁dim	-6311
▁nut	-6312
ading	-6313
uated	-6314
▁1970	-6315
▁Mean	-6316
▁dipl	-6317
▁dome	-6318
▁idol	-6319
▁rent	-6320
▁trop	-6321
ensity	-6322
▁Three	-6323
▁absor	-6324
▁attra	-6325
▁fifth	-6326
▁flows	-6327
▁glass	-6328
▁neare	-6329
jection	-6330
▁Rajput	-6331
▁Sachin	-6332
▁castes	-6333
▁sorrow	-6334
▁Bahadur	-6335
▁Vivekan	-6336
▁aggress	-6337
▁dealing	-6338
▁enterpr	-6339
▁harmful	-6340
▁precise	-6341
▁Mohammad	-6342
▁anywhere	-6343
▁argument	-6344
▁creative	-6345
▁reaching	-6346
▁whenever	-6347
▁carefully	-6348
▁constitute	-6349
▁encouraged	-6350
▁recognised	-6351
▁Association	-6352
▁chromosomes	-6353
▁consequences	-6354
▁geographical	-6355
',	-6356
DP	-6357
che	-6358
rem	-6359
▁33	-6360
anth	-6361
illa	-6362
mark	-6363
▁Sit	-6364
▁Tar	-6365
▁fix	-6366
▁gop	-6367
▁guy	-6368
▁unw	-6369
plete	-6370
ranch	-6371
▁John	-6372
▁Radi	-6373
▁Test	-6374
▁meat	-6375
harraf	-6376
iously	-6377
▁Obama	-6378
▁heads	-6379
▁scope	-6380
▁verse	-6381
▁Center	-6382
▁assign	-6383
▁Mission	-6384
▁Pallava	-6385
▁Udaipur	-6386
▁batsmen	-6387
▁emperor	-6388
▁imposed	-6389
▁raising	-6390
▁vehicle	-6391
▁vimanas	-6392
▁welcome	-6393
▁Business	-6394
▁Pandavas	-6395
▁commonly	-6396
▁defeated	-6397
▁obviously	-6398
▁newspapers	-6399
▁recommendations	-6400
Bir	-6401
ahu	-6402
eff	-6403
mic	-6404
nic	-6405
oda	-6406
tic	-6407
uit	-6408
umn	-6409
Well	-6410
ayat	-6411
east	-6412
gypt	-6413
mail	-6414
mans	-6415
miki	-6416
mony	-6417
olic	-6418
raid	-6419
▁Cur	-6420
▁Est	-6421
▁Far	-6422
▁agg	-6423
▁mix	-6424
▁ran	-6425
▁spl	-6426
enous	-6427
organ	-6428
under	-6429
▁1939	-6430
▁2005	-6431
▁Writ	-6432
▁coff	-6433
▁mode	-6434
▁Again	-6435
▁Amend	-6436
▁Burma	-6437
▁bills	-6438
▁focus	-6439
▁oblig	-6440
▁plane	-6441
▁ratio	-6442
▁shoot	-6443
▁tests	-6444
▁toler	-6445
▁Chawla	-6446
▁artist	-6447
▁attrib	-6448
▁native	-6449
▁rarely	-6450
▁secure	-6451
▁stress	-6452
▁tenant	-6453
▁thirty	-6454
▁twelve	-6455
▁widely	-6456
ositions	-6457
▁periods	-6458
▁persist	-6459
▁researc	-6460
▁aircraft	-6461
▁approval	-6462
▁approved	-6463
▁cellular	-6464
▁channels	-6465
▁dominant	-6466
▁computers	-6467
▁decorated	-6468
▁diversity	-6469
▁efficient	-6470
▁infrastru	-6471
▁regularly	-6472
▁resulting	-6473
▁satisfied	-6474
▁socialist	-6475
▁artificial	-6476
▁colleagues	-6477
▁originally	-6478
▁supporting	-6479
▁functioning	-6480
▁applications	-6481
▁approximately	-6482
OL	-6483
cca	-6484
dev	-6485
lls	-6486
och	-6487
win	-6488
▁Dw	-6489
bing	-6490
ooth	-6491
opal	-6492
utch	-6493
▁Abu	-6494
▁Hum	-6495
▁Lax	-6496
▁fal	-6497
▁isn	-6498
▁tor	-6499
erent	-6500
inath	-6501
▁Arch	-6502
▁Cult	-6503
▁Prop	-6504
▁Tour	-6505
▁busy	-6506
▁fold	-6507
▁gall	-6508
▁luck	-6509
▁neck	-6510
▁sale	-6511
▁shel	-6512
employ	-6513
▁Award	-6514
▁Inter	-6515
▁Verma	-6516
▁bread	-6517
▁flood	-6518
▁magic	-6519
▁persu	-6520
▁sport	-6521
ulating	-6522
▁Madhya	-6523
▁Ravana	-6524
▁fought	-6525
▁guilty	-6526
▁stayed	-6527
▁survey	-6528
▁varied	-6529
▁Emperor	-6530
▁fashion	-6531
▁impress	-6532
▁managed	-6533
▁rapidly	-6534
▁Savarkar	-6535
▁circular	-6536
▁contempt	-6537
▁meetings	-6538
▁patients	-6539
▁Musharraf	-6540
▁happiness	-6541
▁household	-6542
▁selection	-6543
▁absolutely	-6544
▁Environment	-6545
▁arrangements	-6546
IV	-6547
bi	-6548
bu	-6549
ca	-6550
hal	-6551
kind	-6552
rete	-6553
▁Mas	-6554
▁avo	-6555
▁hyp	-6556
ching	-6557
gment	-6558
▁1998	-6559
▁Fest	-6560
▁Park	-6561
▁Poet	-6562
▁drum	-6563
▁file	-6564
ivered	-6565
▁brown	-6566
▁games	-6567
▁photo	-6568
▁proof	-6569
▁quiet	-6570
▁Budget	-6571
▁Sarasw	-6572
▁Sheikh	-6573
▁advert	-6574
▁agency	-6575
▁dollar	-6576
▁enable	-6577
▁fairly	-6578
▁format	-6579
▁insist	-6580
▁namely	-6581
▁prince	-6582
▁convert	-6583
▁innings	-6584
▁seeking	-6585
▁Election	-6586
▁accounts	-6587
▁superior	-6588
▁kilograms	-6589
▁superstru	-6590
▁Bangladesh	-6591
▁ultimately	-6592
▁declaration	-6593
▁discussions	-6594
▁legislature	-6595
▁Commissioner	-6596
▁compensation	-6597
▁representation	-6598
ij	-6599
mn	-6600
ban	-6601
hta	-6602
):):	-6603
reet	-6604
then	-6605
▁Bad	-6606
▁Bat	-6607
▁Lim	-6608
▁Mum	-6609
▁ash	-6610
▁tow	-6611
araja	-6612
indra	-6613
ingly	-6614
▁1921	-6615
▁Deep	-6616
▁babu	-6617
▁dict	-6618
▁font	-6619
▁meal	-6620
incial	-6621
owered	-6622
▁Arabs	-6623
▁Egypt	-6624
▁Nagar	-6625
▁doors	-6626
▁fruit	-6627
▁holds	-6628
▁motor	-6629
▁shoes	-6630
▁towns	-6631
▁worst	-6632
ocratic	-6633
▁Canada	-6634
▁Modern	-6635
▁afraid	-6636
▁crease	-6637
▁shaped	-6638
▁worker	-6639
▁Lucknow	-6640
▁amongst	-6641
▁besides	-6642
▁dignity	-6643
▁prophet	-6644
▁protest	-6645
▁reflect	-6646
▁rituals	-6647
▁negative	-6648
▁valuable	-6649
▁affection	-6650
▁elephants	-6651
▁emotional	-6652
▁Dictionary	-6653
▁efficiency	-6654
▁consequence	-6655
4)	-6656
Sh	-6657
ba	-6658
ASA	-6659
bel	-6660
fox	-6661
fts	-6662
iri	-6663
irt	-6664
kal	-6665
met	-6666
was	-6667
aram	-6668
ikan	-6669
izes	-6670
long	-6671
rous	-6672
▁Ale	-6673
▁Tel	-6674
▁Tra	-6675
▁urg	-6676
amble	-6677
heric	-6678
stead	-6679
ultan	-6680
utory	-6681
▁2006	-6682
▁Nath	-6683
▁arts	-6684
▁bamb	-6685
▁horn	-6686
▁mini	-6687
▁shap	-6688
▁synt	-6689
ancing	-6690
angers	-6691
eshwar	-6692
▁Table	-6693
▁Tibet	-6694
▁cheap	-6695
▁delic	-6696
▁depth	-6697
▁holid	-6698
▁lakhs	-6699
▁worry	-6700
▁Hitler	-6701
▁banned	-6702
▁bureau	-6703
▁easier	-6704
▁gained	-6705
▁lesser	-6706
▁meters	-6707
▁saints	-6708
▁select	-6709
▁winter	-6710
▁Eastern	-6711
▁Indones	-6712
▁Members	-6713
▁autonom	-6714
▁claimed	-6715
▁comprom	-6716
▁doctors	-6717
▁promote	-6718
▁schemes	-6719
▁survive	-6720
▁manifest	-6721
▁republic	-6722
▁sacrific	-6723
▁Karnataka	-6724
▁awareness	-6725
▁collected	-6726
▁delivered	-6727
▁intention	-6728
▁paintings	-6729
▁conclusion	-6730
▁proportion	-6731
▁resistance	-6732
▁perspective	-6733
vy	-6734
▁q	-6735
ero	-6736
ius	-6737
ros	-6738
udi	-6739
aria	-6740
▁Ann	-6741
▁Bij	-6742
▁Haj	-6743
▁Pop	-6744
▁mig	-6745
▁mun	-6746
▁viz	-6747
ctive	-6748
inite	-6749
lfare	-6750
ollow	-6751
orses	-6752
third	-6753
▁Indo	-6754
▁Says	-6755
▁core	-6756
▁mine	-6757
▁push	-6758
▁tied	-6759
Biruni	-6760
cedure	-6761
ushing	-6762
▁Kalam	-6763
▁Never	-6764
▁Organ	-6765
▁Patel	-6766
▁alive	-6767
▁diagn	-6768
▁fault	-6769
▁grace	-6770
▁lakes	-6771
▁liked	-6772
▁ozone	-6773
▁sheep	-6774
▁shock	-6775
▁uncle	-6776
▁Global	-6777
▁excite	-6778
▁fellow	-6779
▁pillow	-6780
▁signed	-6781
▁waters	-6782
▁Defense	-6783
▁closely	-6784
▁digital	-6785
▁discrim	-6786
▁enforce	-6787
▁sending	-6788
▁tremend	-6789
▁welfare	-6790
▁younger	-6791
▁Children	-6792
▁Moreover	-6793
▁ceremony	-6794
▁historic	-6795
▁identify	-6796
▁medicine	-6797
▁realized	-6798
▁relative	-6799
▁studying	-6800
▁installed	-6801
▁nominated	-6802
▁satellite	-6803
▁continuous	-6804
▁identified	-6805
▁liberation	-6806
▁programmes	-6807
▁techniques	-6808
▁nationalist	-6809
▁politicians	-6810
▁Santiniketan	-6811
ih	-6812
uis	-6813
▁Up	-6814
ashi	-6815
otee	-6816
rade	-6817
▁Fed	-6818
▁Sea	-6819
▁USA	-6820
▁adm	-6821
▁cod	-6822
▁gun	-6823
▁kar	-6824
itala	-6825
▁Food	-6826
▁Prin	-6827
▁Rish	-6828
▁obst	-6829
▁slog	-6830
▁ther	-6831
▁tiny	-6832
▁Jammu	-6833
▁Roman	-6834
▁chick	-6835
▁const	-6836
▁enact	-6837
▁knees	-6838
▁loyal	-6839
▁pecul	-6840
▁explos	-6841
▁hidden	-6842
▁hunger	-6843
▁plains	-6844
▁shared	-6845
▁sounds	-6846
ordinate	-6847
▁Foreign	-6848
▁Support	-6849
▁Washing	-6850
▁alleged	-6851
▁channel	-6852
▁enjoyed	-6853
▁evolved	-6854
▁helpful	-6855
▁illness	-6856
▁massive	-6857
▁thereby	-6858
▁accompan	-6859
▁adhishth	-6860
▁drinking	-6861
▁location	-6862
▁mathemat	-6863
▁opinions	-6864
▁painting	-6865
▁Political	-6866
▁Procedure	-6867
▁employees	-6868
▁radiation	-6869
▁succeeded	-6870
▁consisting	-6871
▁percentage	-6872
▁statistics	-6873
▁citizenship	-6874
▁composition	-6875
▁implementation	-6876
39	-6877
7,	-6878
ux	-6879
leg	-6880
ria	-6881
run	-6882
▁Ha	-6883
ansh	-6884
arly	-6885
cked	-6886
harm	-6887
inth	-6888
issa	-6889
mind	-6890
nath	-6891
orse	-6892
uese	-6893
▁400	-6894
▁Jew	-6895
▁Job	-6896
▁Kur	-6897
▁anc	-6898
▁fab	-6899
▁fan	-6900
▁fro	-6901
▁jew	-6902
▁pit	-6903
▁row	-6904
achal	-6905
emies	-6906
erted	-6907
putes	-6908
vices	-6909
▁1996	-6910
▁Camb	-6911
▁Desh	-6912
▁Gold	-6913
▁Hari	-6914
▁Sund	-6915
▁acad	-6916
▁bath	-6917
▁span	-6918
▁vacc	-6919
ctural	-6920
pected	-6921
▁Judge	-6922
▁accur	-6923
▁finds	-6924
▁helpl	-6925
▁inhab	-6926
▁pregn	-6927
▁react	-6928
▁saved	-6929
▁sharp	-6930
▁sites	-6931
▁spect	-6932
itional	-6933
▁Mexico	-6934
▁Swaraj	-6935
▁exists	-6936
▁poison	-6937
▁sports	-6938
▁tribal	-6939
▁wisdom	-6940
▁Jodhpur	-6941
▁decline	-6942
▁engaged	-6943
▁library	-6944
▁musical	-6945
▁possess	-6946
▁Language	-6947
▁attempts	-6948
▁offering	-6949
▁peculiar	-6950
▁prisoner	-6951
▁replaced	-6952
▁spending	-6953
▁Professor	-6954
▁contained	-6955
▁secretary	-6956
▁Washington	-6957
▁frequently	-6958
▁inevitable	-6959
▁considering	-6960
▁availability	-6961
▁considerably	-6962
▁conversation	-6963
▁interpretation	-6964
BI	-6965
RA	-6966
po	-6967
isp	-6968
opy	-6969
rig	-6970
uzz	-6971
wat	-6972
book	-6973
ocal	-6974
rity	-6975
▁Mil	-6976
▁ack	-6977
▁tim	-6978
allel	-6979
ortal	-6980
otted	-6981
▁1973	-6982
▁Rail	-6983
▁Road	-6984
▁abst	-6985
▁cert	-6986
▁encl	-6987
▁orth	-6988
▁wise	-6989
▁Blair	-6990
▁Penal	-6991
▁angry	-6992
▁grave	-6993
▁loose	-6994
▁memor	-6995
▁paras	-6996
▁route	-6997
▁utter	-6998
theless	-6999
▁Arjuna	-7000
▁Pandit	-7001
▁acknow	-7002
▁gentle	-7003
▁learnt	-7004
▁negoti	-7005
▁partly	-7006
▁vulner	-7007
▁Finally	-7008
▁anybody	-7009
▁defined	-7010
▁existed	-7011
▁outlook	-7012
▁passage	-7013
▁seventh	-7014
▁violent	-7015
▁colonial	-7016
▁electron	-7017
▁involves	-7018
▁occurred	-7019
▁revealed	-7020
▁discharge	-7021
▁spreading	-7022
▁submitted	-7023
▁discipline	-7024
▁friendship	-7025
▁distributed	-7026
▁transferred	-7027
▁civilisation	-7028
▁comprehensive	-7029
33	-7030
45	-7031
ID	-7032
vt	-7033
zen	-7034
,200	-7035
agon	-7036
amet	-7037
cond	-7038
gram	-7039
itam	-7040
ught	-7041
zing	-7042
▁Fam	-7043
▁Gan	-7044
▁Nor	-7045
▁Tri	-7046
▁Vol	-7047
▁fib	-7048
▁hyd	-7049
▁lad	-7050
▁via	-7051
ainik	-7052
anath	-7053
arted	-7054
orter	-7055
▁Okay	-7056
▁dies	-7057
▁hunt	-7058
▁poly	-7059
▁rect	-7060
▁stom	-7061
erable	-7062
irable	-7063
making	-7064
▁Power	-7065
▁Stand	-7066
▁Women	-7067
▁cater	-7068
▁doctr	-7069
▁filed	-7070
▁galax	-7071
▁labor	-7072
▁layer	-7073
▁notes	-7074
▁plain	-7075
▁reply	-7076
actions	-7077
ciation	-7078
riminal	-7079
▁Having	-7080
▁dreams	-7081
▁option	-7082
▁shadow	-7083
▁thinks	-7084
▁thrown	-7085
izations	-7086
▁Officer	-7087
▁declare	-7088
▁devoted	-7089
▁excited	-7090
▁experts	-7091
▁exposed	-7092
▁females	-7093
▁housing	-7094
▁insulin	-7095
▁prosper	-7096
▁trained	-7097
▁turning	-7098
▁wearing	-7099
▁expanded	-7100
▁favorite	-7101
▁prospect	-7102
▁addressed	-7103
▁factories	-7104
▁practical	-7105
▁seriously	-7106
▁impression	-7107
▁indigenous	-7108
▁explanation	-7109
70	-7110
No	-7111
UT	-7112
uv	-7113
jid	-7114
mal	-7115
thi	-7116
uds	-7117
▁AT	-7118
arsi	-7119
hent	-7120
tube	-7121
writ	-7122
▁Ber	-7123
▁Eff	-7124
▁anx	-7125
▁ard	-7126
▁cup	-7127
▁hal	-7128
▁rhy	-7129
▁rot	-7130
osure	-7131
▁Bhim	-7132
▁Fate	-7133
▁Khal	-7134
▁isol	-7135
▁liqu	-7136
▁summ	-7137
▁unre	-7138
actory	-7139
igible	-7140
ndered	-7141
▁Hyder	-7142
▁deeds	-7143
▁false	-7144
▁feels	-7145
▁honor	-7146
▁pride	-7147
▁storm	-7148
tenance	-7149
▁Bachan	-7150
▁Hazrat	-7151
▁awards	-7152
▁copies	-7153
▁diplom	-7154
▁engage	-7155
▁preser	-7156
▁resort	-7157
▁subsid	-7158
▁wishes	-7159
▁Instead	-7160
▁Punjabi	-7161
▁centres	-7162
▁consent	-7163
▁involve	-7164
▁muslims	-7165
▁replace	-7166
▁stomach	-7167
▁backward	-7168
▁boundary	-7169
▁breeding	-7170
▁entering	-7171
▁fighters	-7172
▁organism	-7173
▁petition	-7174
▁terrible	-7175
▁Amendment	-7176
▁Chalukyan	-7177
▁Religious	-7178
▁depending	-7179
▁elsewhere	-7180
▁producing	-7181
▁Revolution	-7182
▁accordance	-7183
▁chromosome	-7184
▁convention	-7185
▁phenomenon	-7186
▁statements	-7187
▁restrictions	-7188
▁infrastructure	-7189
fe	-7190
abi	-7191
ida	-7192
irs	-7193
lip	-7194
oga	-7195
olf	-7196
▁Ba	-7197
▁mu	-7198
ault	-7199
idas	-7200
ller	-7201
odox	-7202
pill	-7203
riya	-7204
uing	-7205
▁Dom	-7206
▁Nir	-7207
▁Non	-7208
▁Sud	-7209
▁gat	-7210
▁oct	-7211
anasi	-7212
lined	-7213
usole	-7214
▁1948	-7215
▁1992	-7216
▁Mark	-7217
▁Play	-7218
▁Tata	-7219
▁abol	-7220
▁ears	-7221
▁emit	-7222
▁glac	-7223
▁ment	-7224
▁trip	-7225
▁wire	-7226
arshan	-7227
iation	-7228
ikaner	-7229
▁2008,	-7230
▁Durga	-7231
▁brave	-7232
▁guide	-7233
▁shops	-7234
▁topic	-7235
ourable	-7236
▁Import	-7237
▁Valley	-7238
▁bamboo	-7239
▁coffee	-7240
▁editor	-7241
▁genoty	-7242
▁passes	-7243
▁prohib	-7244
▁termin	-7245
▁traged	-7246
▁vested	-7247
▁Through	-7248
▁carries	-7249
▁deities	-7250
▁offices	-7251
▁overall	-7252
▁retired	-7253
▁Criminal	-7254
▁friendly	-7255
▁intended	-7256
▁mandapas	-7257
▁polluted	-7258
▁produces	-7259
▁Ahmedabad	-7260
▁broadcast	-7261
▁discovery	-7262
▁philosoph	-7263
▁categories	-7264
▁constantly	-7265
▁headquarters	-7266
▁successfully	-7267
32	-7268
BC	-7269
aga	-7270
ela	-7271
▁Sr	-7272
alas	-7273
asha	-7274
asht	-7275
emic	-7276
gged	-7277
isal	-7278
more	-7279
vard	-7280
▁Dra	-7281
▁Mur	-7282
▁NHS	-7283
▁Que	-7284
▁Shi	-7285
▁Sou	-7286
▁Tom	-7287
▁Yes	-7288
▁oxy	-7289
▁tom	-7290
aling	-7291
ether	-7292
ockey	-7293
riers	-7294
sabha	-7295
store	-7296
ucose	-7297
venth	-7298
water	-7299
▁1971	-7300
▁1993	-7301
▁NASA	-7302
▁Take	-7303
▁garb	-7304
▁root	-7305
asions	-7306
engers	-7307
mother	-7308
retion	-7309
teries	-7310
▁Joshi	-7311
▁Radio	-7312
▁Think	-7313
▁accum	-7314
▁dealt	-7315
▁fifty	-7316
▁thick	-7317
▁Income	-7318
▁Munshi	-7319
▁Subash	-7320
▁allows	-7321
▁camera	-7322
▁cement	-7323
▁rememb	-7324
▁throne	-7325
▁visual	-7326
▁worshi	-7327
▁belongs	-7328
▁compare	-7329
▁diverse	-7330
▁drawing	-7331
▁quarter	-7332
▁singing	-7333
▁speaker	-7334
▁Administ	-7335
▁astronom	-7336
▁delivery	-7337
▁innocent	-7338
▁Himalayan	-7339
▁communist	-7340
▁expensive	-7341
▁prisoners	-7342
▁reduction	-7343
▁relatives	-7344
▁sensitive	-7345
▁specified	-7346
▁Portuguese	-7347
▁Upanishads	-7348
▁collective	-7349
▁tremendous	-7350
▁adhishthana	-7351
▁Rabindranath	-7352
aar	-7353
jan	-7354
jud	-7355
obe	-7356
she	-7357
▁Av	-7358
▁CP	-7359
What	-7360
aked	-7361
kara	-7362
mine	-7363
utra	-7364
▁Bel	-7365
▁LEA	-7366
▁Mat	-7367
▁Six	-7368
▁haz	-7369
▁nic	-7370
andhi	-7371
ighth	-7372
inema	-7373
state	-7374
▁1942	-7375
▁1945	-7376
▁asce	-7377
▁burn	-7378
▁hung	-7379
▁nest	-7380
▁thin	-7381
elling	-7382
▁Advoc	-7383
▁Money	-7384
▁brill	-7385
▁haven	-7386
▁lingu	-7387
▁shout	-7388
▁vedas	-7389
inating	-7390
iveness	-7391
▁Jaipur	-7392
▁Temple	-7393
▁differ	-7394
▁flower	-7395
▁habits	-7396
▁incarn	-7397
▁prayer	-7398
▁recess	-7399
▁reward	-7400
▁umpire	-7401
▁wastes	-7402
▁worlds	-7403
ifferent	-7404
inations	-7405
▁Puranas	-7406
▁amounts	-7407
▁glucose	-7408
▁organic	-7409
▁prepare	-7410
▁restric	-7411
struction	-7412
▁arranged	-7413
▁contrast	-7414
▁monument	-7415
▁parallel	-7416
▁requires	-7417
▁Bharatpur	-7418
▁arguments	-7419
▁continent	-7420
▁excellent	-7421
▁guarantee	-7422
▁protected	-7423
▁biological	-7424
▁prescribed	-7425
▁compositions	-7426
.,	-7427
71	-7428
hol	-7429
▁48	-7430
▁kh	-7431
ajur	-7432
cket	-7433
▁Kap	-7434
▁Nat	-7435
▁Was	-7436
▁Web	-7437
▁cos	-7438
▁jaw	-7439
▁mud	-7440
▁pad	-7441
apore	-7442
ardar	-7443
isers	-7444
rency	-7445
ridge	-7446
usted	-7447
▁Bagh	-7448
▁Chat	-7449
▁Dire	-7450
▁Guru	-7451
▁Hall	-7452
▁Help	-7453
▁Mumt	-7454
▁Pray	-7455
▁Tuls	-7456
▁Vish	-7457
▁Vyas	-7458
▁ange	-7459
▁bond	-7460
▁cows	-7461
▁Karna	-7462
▁disin	-7463
▁guess	-7464
▁panel	-7465
▁spell	-7466
▁thank	-7467
angular	-7468
chandra	-7469
ogether	-7470
▁Orissa	-7471
▁Street	-7472
▁Transl	-7473
▁bridge	-7474
▁closer	-7475
▁clouds	-7476
▁hearts	-7477
▁injury	-7478
▁larvae	-7479
▁preval	-7480
▁Constit	-7481
▁Without	-7482
▁destroy	-7483
▁harmony	-7484
▁injured	-7485
▁intense	-7486
▁liberty	-7487
▁promise	-7488
▁tragedy	-7489
▁Festival	-7490
▁Services	-7491
▁chairman	-7492
▁helpless	-7493
▁occupied	-7494
▁offences	-7495
▁sanction	-7496
▁sessions	-7497
▁shortage	-7498
▁surprise	-7499
▁projected	-7500
▁villagers	-7501
▁acceptance	-7502
▁situations	-7503
63	-7504
TH	-7505
edy	-7506
enn	-7507
ino	-7508
lor	-7509
nda	-7510
new	-7511
spe	-7512
▁ly	-7513
alli	-7514
gery	-7515
iest	-7516
life	-7517
rain	-7518
urch	-7519
angal	-7520
archy	-7521
▁1946	-7522
▁aims	-7523
▁anth	-7524
▁sake	-7525
▁tong	-7526
iceroy	-7527
itated	-7528
teenth	-7529
uction	-7530
▁Chair	-7531
▁Gener	-7532
▁Green	-7533
▁angle	-7534
▁arise	-7535
▁extin	-7536
▁facil	-7537
▁males	-7538
▁owner	-7539
▁treas	-7540
ocation	-7541
ologist	-7542
▁Agency	-7543
▁Aryans	-7544
▁eating	-7545
▁flying	-7546
ologists	-7547
▁beliefs	-7548
▁forming	-7549
▁lessons	-7550
▁protein	-7551
▁radical	-7552
▁smoking	-7553
▁watched	-7554
▁coloured	-7555
▁indirect	-7556
▁unemploy	-7557
▁visiting	-7558
▁Indonesia	-7559
▁Saraswati	-7560
▁confident	-7561
▁literally	-7562
▁somewhere	-7563
▁teachings	-7564
▁varieties	-7565
▁relatively	-7566
▁scriptures	-7567
▁variations	-7568
▁cultivation	-7569
▁departments	-7570
▁examination	-7571
▁experienced	-7572
▁intelligent	-7573
▁maintenance	-7574
▁researchers	-7575
▁exploitation	-7576
▁recommendation	-7577
▁superstructure	-7578
99	-7579
pa	-7580
iro	-7581
▁7.	-7582
▁fo	-7583
amed	-7584
dict	-7585
keys	-7586
lude	-7587
osal	-7588
rael	-7589
ster	-7590
▁Tax	-7591
▁lok	-7592
▁sav	-7593
alian	-7594
etime	-7595
inity	-7596
named	-7597
▁(200	-7598
▁1929	-7599
▁Geet	-7600
▁Kann	-7601
▁Post	-7602
▁clar	-7603
▁puzz	-7604
▁sail	-7605
▁unus	-7606
ourses	-7607
piracy	-7608
▁Front	-7609
▁Naren	-7610
▁Saint	-7611
▁alien	-7612
▁aspir	-7613
▁bless	-7614
▁disag	-7615
▁moves	-7616
▁reput	-7617
usoleum	-7618
▁robots	-7619
▁screen	-7620
▁solved	-7621
▁string	-7622
▁talked	-7623
▁wholly	-7624
▁wooden	-7625
▁Russian	-7626
▁adverse	-7627
▁equival	-7628
▁eternal	-7629
▁miracle	-7630
▁monsoon	-7631
▁payment	-7632
▁typical	-7633
iteration	-7634
▁contrary	-7635
▁declined	-7636
▁ornament	-7637
▁promised	-7638
▁rejected	-7639
▁tomorrow	-7640
▁tourists	-7641
▁Kathmandu	-7642
▁documents	-7643
▁interview	-7644
▁involving	-7645
▁partition	-7646
▁primarily	-7647
▁recognise	-7648
▁surrender	-7649
▁voluntary	-7650
▁Christians	-7651
▁Hindustani	-7652
▁applicable	-7653
▁assessment	-7654
▁comparison	-7655
▁underground	-7656
75	-7657
CA	-7658
RE	-7659
ky	-7660
aph	-7661
how	-7662
pto	-7663
▁44	-7664
▁Op	-7665
▁ho	-7666
▁ic	-7667
▁ki	-7668
achi	-7669
atin	-7670
born	-7671
have	-7672
icit	-7673
oked	-7674
oper	-7675
▁Att	-7676
▁Ext	-7677
▁Ham	-7678
▁Use	-7679
▁kab	-7680
▁tip	-7681
igarh	-7682
▁1857	-7683
▁Drav	-7684
▁Free	-7685
▁Have	-7686
▁Jail	-7687
▁Saty	-7688
▁Sidd	-7689
▁Sudd	-7690
▁govt	-7691
▁tack	-7692
▁tact	-7693
▁wars	-7694
▁wasn	-7695
erican	-7696
ishers	-7697
▁Paris	-7698
▁genet	-7699
▁griva	-7700
▁optim	-7701
▁petro	-7702
▁queen	-7703
▁smart	-7704
▁sorts	-7705
▁split	-7706
ologies	-7707
▁Bangal	-7708
▁Laxman	-7709
▁Report	-7710
▁ancest	-7711
▁ending	-7712
▁insult	-7713
▁photos	-7714
▁poetic	-7715
storeyed	-7716
▁authent	-7717
▁noticed	-7718
▁publish	-7719
▁realize	-7720
▁textile	-7721
▁trading	-7722
▁Security	-7723
▁Whatever	-7724
▁bacteria	-7725
▁demanded	-7726
▁disputes	-7727
▁employer	-7728
▁magazine	-7729
▁stronger	-7730
▁Bollywood	-7731
▁Financial	-7732
▁empowered	-7733
▁exercised	-7734
▁initiated	-7735
▁proposals	-7736
▁complaints	-7737
▁irrigation	-7738
▁propaganda	-7739
▁separately	-7740
▁contributed	-7741
▁recognition	-7742
▁reproduction	-7743
▁automatically	-7744
24	-7745
35	-7746
78	-7747
He	-7748
lar	-7749
rie	-7750
uda	-7751
▁65	-7752
▁ka	-7753
fire	-7754
illy	-7755
quit	-7756
▁160	-7757
▁250	-7758
▁IME	-7759
▁Lit	-7760
▁Maj	-7761
▁Unf	-7762
▁Vas	-7763
▁din	-7764
▁sar	-7765
▁sed	-7766
▁spr	-7767
akers	-7768
andra	-7769
ifies	-7770
ipped	-7771
lying	-7772
night	-7773
▁1997	-7774
▁Rang	-7775
▁Read	-7776
▁Sche	-7777
▁Text	-7778
▁deem	-7779
▁gest	-7780
▁loud	-7781
▁sper	-7782
▁tala	-7783
▁vice	-7784
▁wedd	-7785
anjali	-7786
herent	-7787
ounder	-7788
stream	-7789
▁Elect	-7790
▁Mecca	-7791
▁Prote	-7792
▁canal	-7793
▁depri	-7794
▁embra	-7795
▁exped	-7796
▁hindu	-7797
▁ships	-7798
▁tough	-7799
▁trick	-7800
▁waist	-7801
▁wider	-7802
▁10,000	-7803
▁Bureau	-7804
▁Econom	-7805
▁Mother	-7806
▁adding	-7807
▁breeds	-7808
▁circle	-7809
▁condem	-7810
▁copper	-7811
▁lights	-7812
▁metres	-7813
▁oceans	-7814
▁offers	-7815
▁riding	-7816
iciently	-7817
▁Goddess	-7818
▁Viceroy	-7819
▁aditala	-7820
▁arrival	-7821
▁bowlers	-7822
▁browser	-7823
▁counted	-7824
▁devotee	-7825
▁lawyers	-7826
▁selling	-7827
▁shelter	-7828
▁vessels	-7829
operation	-7830
▁breaking	-7831
▁heredity	-7832
▁minority	-7833
▁orthodox	-7834
▁schedule	-7835
▁sympathy	-7836
▁Singapore	-7837
▁chemicals	-7838
▁elaborate	-7839
▁generated	-7840
▁Industrial	-7841
▁apparently	-7842
▁challenged	-7843
▁economical	-7844
▁meditation	-7845
▁structural	-7846
▁subsequent	-7847
▁psychological	-7848
34	-7849
AM	-7850
Go	-7851
bo	-7852
gl	-7853
ato	-7854
bre	-7855
nty	-7856
ori	-7857
▁vo	-7858
apse	-7859
arsh	-7860
asan	-7861
cted	-7862
husi	-7863
ords	-7864
orer	-7865
rass	-7866
▁Fig	-7867
▁Inf	-7868
▁Rig	-7869
▁Sil	-7870
acing	-7871
antly	-7872
avali	-7873
eding	-7874
harat	-7875
odhan	-7876
▁1919	-7877
▁1940	-7878
▁Amar	-7879
▁Kand	-7880
▁Next	-7881
▁dent	-7882
▁fate	-7883
▁lege	-7884
▁merc	-7885
▁semi	-7886
▁sits	-7887
▁wool	-7888
coming	-7889
illing	-7890
otions	-7891
uality	-7892
▁Media	-7893
▁Phone	-7894
▁Queen	-7895
▁adapt	-7896
▁aside	-7897
▁compe	-7898
▁oppon	-7899
▁seeds	-7900
▁tries	-7901
▁Mamata	-7902
▁Purana	-7903
▁horses	-7904
▁mirror	-7905
▁mutual	-7906
▁repair	-7907
▁shares	-7908
▁treaty	-7909
▁varies	-7910
onscious	-7911
▁Islands	-7912
▁assured	-7913
▁dynamic	-7914
▁enemies	-7915
▁flowing	-7916
▁malaria	-7917
▁outcome	-7918
▁patriot	-7919
▁sharing	-7920
▁symbols	-7921
▁warning	-7922
▁Judicial	-7923
▁Reference	-7924
▁	-7925
e	-7926
t	-7927
a	-7928
i	-7929
o	-7930
n	-7931
s	-7932
r	-7933
h	-7934
l	-7935
d	-7936
c	-7937
u	-7938
m	-7939
f	-7940
p	-7941
g	-7942
y	-7943
w	-7944
b	-7945
.	-7946
,	-7947
v	-7948
k	-7949
I	-7950
T	-7951
-	-7952
A	-7953
S	-7954
B	-7955
'	-7956
R	-7957
C	-7958
1	-7959
M	-7960
x	-7961
0	-7962
H	-7963
j	-7964
P	-7965
L	-7966
D	-7967
G	-7968
N	-7969
9	-7970
W	-7971
2	-7972
E	-7973
q	-7974
”	-7975
K	-7976
O	-7977
F	-7978
5	-7979
“	-7980
)	-7981
3	-7982
(	-7983
z	-7984
:	-7985
8	-7986
4	-7987
6	-7988
J	-7989
U	-7990
7	-7991
V	-7992
?	-7993
Y	-7994
;	-7995
Q	-7996
