<unk>	0
<s>	0
</s>	0
▁क	-0
▁स	-1
▁ह	-2
▁म	-3
▁प	-4
▁है	-5
्र	-6
▁के	-7
ें	-8
ार	-9
▁ज	-10
▁अ	-11
▁व	-12
या	-13
▁ब	-14
▁न	-15
ों	-16
▁में	-17
▁द	-18
ता	-19
▁उ	-20
▁ल	-21
ने	-22
र्	-23
▁की	-24
▁र	-25
▁औ	-26
्य	-27
▁.	-28
▁और	-29
▁त	-30
▁आ	-31
▁का	-32
िक	-33
▁भ	-34
ान	-35
▁से	-36
▁इ	-37
▁कि	-38
▁को	-39
▁प्र	-40
▁कर	-41
▁ग	-42
ना	-43
▁,	-44
▁य	-45
्त	-46
▁ए	-47
▁हैं	-48
ित	-49
▁हो	-50
▁पर	-51
▁इस	-52
▁थ	-53
ाल	-54
▁श	-55
्व	-56
ते	-57
▁च	-58
न्	-59
ही	-60
▁वि	-61
▁एक	-62
▁सं	-63
▁जा	-64
्ष	-65
ड़	-66
ती	-67
िय	-68
स्	-69
िए	-70
हा	-71
▁सम	-72
से	-73
ति	-74
ाम	-75
के	-76
वा	-77
▁भी	-78
िया	-79
िल	-80
्या	-81
▁यह	-82
हीं	-83
▁अप	-84
▁दे	-85
ाज	-86
▁ने	-87
▁नहीं	-88
▁ख	-89
त्र	-90
री	-91
▁(	-92
ोग	-93
्ट	-94
▁लिए	-95
ंग	-96
नी	-97
का	-98
ाह	-99
ास	-100
▁जो	-101
था	-102
▁था	-103
▁फ	-104
कार	-105
रा	-106
▁उस	-107
▁मु	-108
▁ही	-109
क्ष	-110
िन	-111
ले	-112
▁बा	-113
▁उन	-114
▁सा	-115
▁सक	-116
▁हम	-117
▁नि	-118
सी	-119
ंद	-120
▁अन	-121
▁अध	-122
ला	-123
▁या	-124
की	-125
्म	-126
ाय	-127
▁ले	-128
▁हु	-129
▁आप	-130
▁किया	-131
▁तो	-132
कर	-133
ुर	-134
द्	-135
ियों	-136
▁स्	-137
▁1	-138
भा	-139
िस	-140
ेश	-141
▁भार	-142
ंत	-143
न्ह	-144
▁करने	-145
▁कार	-146
▁कु	-147
श्	-148
▁रह	-149
▁ध	-150
▁गया	-151
गा	-152
▁राज	-153
सा	-154
ष्ट	-155
ल्	-156
ली	-157
च्	-158
दी	-159
ैं	-160
ूप	-161
ारा	-162
कि	-163
त्	-164
रे	-165
ओं	-166
ूर्	-167
▁अपने	-168
िर	-169
हु	-170
▁वे	-171
▁तथा	-172
▁उप	-173
▁थी	-174
▁ट	-175
▁तक	-176
मा	-177
द्ध	-178
▁अधिक	-179
▁उन्ह	-180
▁थे	-181
▁वाल	-182
▁मे	-183
▁छ	-184
▁'	-185
ीन	-186
▁कुछ	-187
वि	-188
▁वह	-189
क्त	-190
▁घ	-191
▁सु	-192
▁विश	-193
▁अनु	-194
भी	-195
▁पा	-196
▁स्व	-197
▁द्व	-198
▁साथ	-199
▁भा	-200
▁हि	-201
ारे	-202
▁रूप	-203
स्त	-204
दा	-205
▁जिस	-206
्रे	-207
▁वर्	-208
ये	-209
में	-210
▁दो	-211
▁ऐ	-212
्री	-213
▁मैं	-214
▁चाह	-215
▁पह	-216
▁मह	-217
ण्	-218
▁बहु	-219
ारी	-220
▁जब	-221
ंध	-222
▁ड	-223
▁लग	-224
▁साम	-225
▁जाता	-226
▁दिया	-227
▁बना	-228
्यों	-229
▁भारत	-230
▁इन	-231
ंत्र	-232
गर	-233
▁मिल	-234
ाना	-235
िव	-236
▁निर्	-237
▁बाद	-238
खा	-239
▁स्थ	-240
ष्	-241
जी	-242
▁?	-243
▁मा	-244
▁लोग	-245
▁दू	-246
▁होता	-247
▁प्रति	-248
▁बहुत	-249
नों	-250
▁द्वारा	-251
ृत	-252
ंड	-253
▁कम	-254
▁जी	-255
▁किसी	-256
▁ये	-257
ानी	-258
जा	-259
▁जै	-260
▁सकता	-261
▁तर	-262
▁कोई	-263
▁पु	-264
▁कह	-265
▁सर	-266
▁व्य	-267
देश	-268
च्च	-269
र्म	-270
योग	-271
ज़	-272
ब्	-273
▁समय	-274
▁सि	-275
मान	-276
▁करते	-277
ाप	-278
▁रहे	-279
किन	-280
्ष्	-281
▁सब	-282
श्छ	-283
▁)	-284
ऊण्	-285
ऊण्श्छ	-286
ऊण्श्छ्ष्	-287
ढ़	-288
त्त	-289
▁19	-290
▁रा	-291
ंच	-292
▁-	-293
क़	-294
▁सी	-295
गी	-296
ड़े	-297
▁क्ष	-298
ार्	-299
चार	-300
न्द	-301
▁अपनी	-302
को	-303
म्	-304
▁लेकिन	-305
ड़ी	-306
▁उनके	-307
▁पू	-308
धार	-309
द्य	-310
ूल	-311
दि	-312
िका	-313
▁तरह	-314
वी	-315
गे	-316
िश	-317
ोज	-318
▁बात	-319
ोट	-320
यी	-321
रण	-322
▁देख	-323
▁मान	-324
▁2	-325
▁हुआ	-326
िये	-327
▁सकते	-328
ौर	-329
ां	-330
ुन	-331
पा	-332
▁ला	-333
▁१	-334
▁होने	-335
▁हुए	-336
स्थ	-337
्ल	-338
वाद	-339
▁बी	-340
▁सरकार	-341
ेल	-342
ोंने	-343
हां	-344
स्ता	-345
ोक	-346
▁दी	-347
▁रहा	-348
▁उन्हें	-349
ूर्ण	-350
▁होती	-351
ूर	-352
▁करना	-353
▁वाले	-354
न्न	-355
00	-356
च्छ	-357
▁काम	-358
तीय	-359
भाव	-360
्ञ	-361
बा	-362
▁कार्य	-363
▁नाम	-364
धान	-365
▁पहले	-366
ड़ा	-367
▁विक	-368
▁उत्	-369
▁लि	-370
▁देश	-371
▁इसके	-372
▁ओ	-373
▁कारण	-374
बंध	-375
कों	-376
र्थ	-377
▁|	-378
बर	-379
▁वर्ष	-380
▁दूस	-381
ुल	-382
ोल	-383
▁कहा	-384
▁अंत	-385
▁जीव	-386
▁ता	-387
▁रख	-388
▁अव	-389
िला	-390
क्	-391
ेत्र	-392
क्र	-393
▁यु	-394
▁अब	-395
▁न्या	-396
▁भारतीय	-397
िम	-398
▁गु	-399
▁उसे	-400
वं	-401
ेद	-402
▁विश्व	-403
▁उसके	-404
▁उन्होंने	-405
शन	-406
▁क्या	-407
▁:	-408
िट	-409
क्ति	-410
▁क्षेत्र	-411
▁जान	-412
▁बन	-413
मे	-414
ंक	-415
▁पी	-416
▁सद	-417
ेष	-418
▁राष्ट	-419
▁ऊ	-420
▁प्रकार	-421
त्म	-422
▁करता	-423
▁बारे	-424
श्च	-425
▁जैसे	-426
▁अन्य	-427
▁।	-428
▁चाहिए	-429
तर	-430
लय	-431
ेट	-432
▁होते	-433
▁लोगों	-434
▁चु	-435
▁क्र	-436
ोध	-437
स्था	-438
▁परि	-439
पर	-440
▁उनकी	-441
स्ट	-442
▁राज्य	-443
▁जाती	-444
▁सो	-445
हाँ	-446
▁जि	-447
▁लगा	-448
ाप्त	-449
सार	-450
त्व	-451
▁अल	-452
००	-453
ज्ञ	-454
▁निय	-455
ंग्रे	-456
▁हू	-457
पूर्ण	-458
▁सबसे	-459
एं	-460
▁सह	-461
प्र	-462
नि	-463
क़्त	-464
हर	-465
▁जाने	-466
▁गए	-467
तिक	-468
▁सभी	-469
र्व	-470
▁ई	-471
▁गई	-472
▁बि	-473
णी	-474
▁हुई	-475
▁उत्त	-476
▁जन	-477
र्त	-478
▁ब्र	-479
यु	-480
▁बच्च	-481
▁मुझ	-482
▁सू	-483
▁फिर	-484
▁पै	-485
त्य	-486
वल	-487
▁क्यों	-488
▁परिव	-489
चना	-490
▁दिन	-491
्यू	-492
▁निक	-493
▁अस	-494
मी	-495
▁ना	-496
▁बद	-497
▁एवं	-498
ास्त	-499
क्षा	-500
▁वै	-501
मु	-502
स्क	-503
▁कई	-504
▁पास	-505
▁शुर	-506
ंब	-507
ूर्व	-508
▁वो	-509
▁रही	-510
▁प्रा	-511
्रीय	-512
जन	-513
ंट	-514
▁नी	-515
▁जीवन	-516
ोर	-517
▁हा	-518
▁स्थित	-519
▁दि	-520
▁कै	-521
▁बे	-522
▁भाग	-523
ूम	-524
▁विशेष	-525
▁हर	-526
▁स्त	-527
▁समझ	-528
षा	-529
धि	-530
चा	-531
▁मुझे	-532
▁मै	-533
ीय	-534
▁वा	-535
▁इसे	-536
ित्र	-537
▁बार	-538
▁अगर	-539
▁यदि	-540
▁होगा	-541
▁जिन	-542
्यादा	-543
▁अभ	-544
▁लिये	-545
फ़	-546
▁सकती	-547
दान	-548
▁साल	-549
षण	-550
▁चल	-551
गत	-552
▁केवल	-553
▁मन	-554
ग्र	-555
रों	-556
ोन	-557
ियां	-558
▁अपना	-559
▁तब	-560
▁ग्र	-561
▁व्या	-562
▁ओर	-563
श्य	-564
ुद	-565
▁ऐसा	-566
िता	-567
▁संबंध	-568
▁महा	-569
▁जाते	-570
िप	-571
▁पार	-572
ाली	-573
▁दु	-574
ारों	-575
▁बीच	-576
▁पुर	-577
ंप	-578
▁ज़	-579
द्योग	-580
ृति	-581
an	-582
▁वाली	-583
▁न्याया	-584
िक्ष	-585
▁मुख	-586
▁ढ	-587
▁ऐसे	-588
ंभ	-589
▁जाए	-590
बी	-591
सल	-592
▁हिंद	-593
▁विचार	-594
▁बल्	-595
ध्य	-596
दे	-597
▁धर्म	-598
▁प्राप्त	-599
▁कभी	-600
ंतु	-601
▁गयी	-602
ंस	-603
ेंगे	-604
ुष	-605
करण	-606
▁प्रभाव	-607
▁अच्छ	-608
er	-609
▁आव	-610
ब्द	-611
▁आर	-612
▁3	-613
▁बता	-614
धिक	-615
ोप	-616
र्ष	-617
ील	-618
माण	-619
▁हूँ	-620
वे	-621
▁क्योंकि	-622
▁बढ़	-623
▁आधार	-624
▁छोट	-625
चे	-626
▁ठ	-627
▁मंद	-628
िन्न	-629
ेम	-630
▁महत्व	-631
▁बाह	-632
▁माम	-633
र्श	-634
श्व	-635
ून	-636
▁दोनों	-637
▁हमारे	-638
▁प्रयोग	-639
▁पूर्व	-640
▁“	-641
फी	-642
▁गये	-643
▁राष्ट्र	-644
▁मूल	-645
▁सामान	-646
▁लिया	-647
▁२	-648
्रा	-649
▁विकास	-650
िंग	-651
ष्ठ	-652
तों	-653
▁सन्	-654
सर	-655
ोड़	-656
▁ऋ	-657
▁उसकी	-658
▁इसका	-659
▁मौ	-660
न्द्र	-661
▁शुरू	-662
on	-663
▁लोक	-664
▁अलग	-665
▁देने	-666
पाद	-667
र्क	-668
भव	-669
▁श्रे	-670
▁विभ	-671
▁मंदिर	-672
▁उनका	-673
▁करती	-674
ताओं	-675
▁तु	-676
िल्	-677
टर	-678
▁आपको	-679
टा	-680
▁अनुसार	-681
▁क़	-682
▁बु	-683
▁स्थान	-684
स्तान	-685
▁हमें	-686
▁तीन	-687
▁उत्तर	-688
▁झ	-689
लों	-690
▁हे	-691
▁इसल	-692
▁फ़	-693
▁उद	-694
▁स्था	-695
न्दी	-696
▁शब्द	-697
़्य	-698
रिक	-699
▁ची	-700
तु	-701
▁राम	-702
▁हाल	-703
▁गा	-704
▁पहु	-705
▁उपयोग	-706
▁संस	-707
ुनिया	-708
▁जु	-709
▁न्यायालय	-710
पी	-711
ोजना	-712
▁इत	-713
कारी	-714
▁भाषा	-715
मुख	-716
हार	-717
पाल	-718
▁ज्यादा	-719
▁व्यव	-720
▁भर	-721
▁अधिकार	-722
▁बै	-723
▁संघ	-724
स्य	-725
भग	-726
ज्ञान	-727
न्त	-728
्स	-729
▁दूसरे	-730
मित	-731
▁लिख	-732
▁अंतर	-733
क्षण	-734
▁अध्य	-735
▁पो	-736
▁संस्क	-737
▁दौर	-738
▁पि	-739
▁विर	-740
श्यक	-741
▁इसमें	-742
▁१९	-743
▁हों	-744
र्य	-745
▁साह	-746
ल्प	-747
ेज	-748
▁सर्व	-749
त्रा	-750
पति	-751
काल	-752
त्ता	-753
▁आवश्यक	-754
तंत्र	-755
▁सामान्य	-756
ल्ल	-757
▁आम	-758
▁उसने	-759
व्य	-760
दू	-761
▁t	-762
ंख	-763
▁आज	-764
▁दृ	-765
धी	-766
▁काफी	-767
▁जाना	-768
▁युद्ध	-769
धा	-770
▁इसलिए	-771
चित	-772
▁वास्त	-773
टी	-774
▁कहते	-775
▁मो	-776
तंक	-777
▁मंत्र	-778
शा	-779
▁मेरे	-780
ar	-781
▁इसी	-782
ासन	-783
▁आदि	-784
▁उसका	-785
ार्थ	-786
▁स्प	-787
्टी	-788
▁व्यक्ति	-789
▁मत	-790
ची	-791
▁जिसमें	-792
र्ट	-793
▁फै	-794
ाई	-795
हास	-796
▁Z	-797
ांत	-798
▁अथ	-799
▁पद	-800
▁लगभग	-801
स्या	-802
▁मैंने	-803
at	-804
▁श्रेणी	-805
काश	-806
▁बदल	-807
्वी	-808
▁स्थाप	-809
हाय	-810
▁उठ	-811
▁नही	-812
▁आतंक	-813
in	-814
▁अर्थ	-815
बाज	-816
वादी	-817
▁अंग्रे	-818
ियो	-819
▁हिन्दी	-820
▁उद्योग	-821
▁जर	-822
ियाँ	-823
▁तै	-824
▁प्रमुख	-825
▁स्ट	-826
▁पड़	-827
▁प्रश	-828
▁यहां	-829
▁परिवर्त	-830
ुक	-831
▁पता	-832
विधान	-833
▁भूम	-834
▁उच्च	-835
ंगा	-836
▁शाम	-837
क्षि	-838
▁जल	-839
धे	-840
वर	-841
▁इससे	-842
▁ऐसी	-843
▁4	-844
पुर	-845
ेक	-846
▁अक	-847
▁सेवा	-848
▁जहां	-849
तिहास	-850
▁दुनिया	-851
ीक	-852
▁टी	-853
▁उत्पाद	-854
▁पश्च	-855
▁महत्वपूर्ण	-856
▁दौरान	-857
▁हाथ	-858
ित्य	-859
▁किए	-860
▁संविधान	-861
ण्ड	-862
▁शिक्ष	-863
▁दर	-864
्यान	-865
▁बड़ी	-866
▁सहाय	-867
▁यहाँ	-868
शत	-869
▁वृ	-870
ंज	-871
▁अर्	-872
सि	-873
▁समस्या	-874
▁कांग्रे	-875
यों	-876
▁5	-877
▁निर्माण	-878
फल	-879
▁रो	-880
▁अने	-881
वेश	-882
▁खा	-883
वाह	-884
तम	-885
▁दिखा	-886
▁जिसे	-887
▁दा	-888
▁दक्षि	-889
▁कोश	-890
न्हें	-891
स्थित	-892
▁आद	-893
वास	-894
▁स्वा	-895
▁योजना	-896
▁होना	-897
▁अथवा	-898
▁अग	-899
▁सके	-900
▁चार	-901
▁पूरी	-902
▁व्याप	-903
बू	-904
▁इसकी	-905
▁मद	-906
ेंद	-907
त्मक	-908
▁शामिल	-909
▁कांग्रेस	-910
ूह	-911
▁वास्तव	-912
▁महिला	-913
ष्ण	-914
ंद्र	-915
▁अमे	-916
ूट	-917
▁करें	-918
▁संसद	-919
ाला	-920
▁मध्य	-921
▁संग	-922
ात	-923
▁घर	-924
द्धि	-925
्रो	-926
ुओं	-927
िल्म	-928
▁प्रतिशत	-929
▁कृ	-930
▁रु	-931
▁दूर	-932
▁उपल	-933
▁विष	-934
थम	-935
▁अनेक	-936
▁खु	-937
वार	-938
▁आस	-939
en	-940
ैन	-941
भाष	-942
▁जाये	-943
▁अम	-944
▁तरी	-945
▁शहर	-946
▁बनाने	-947
▁राष्ट्रीय	-948
▁ती	-949
▁आगे	-950
▁सभा	-951
▁संख	-952
▁साहित्य	-953
▁बाहर	-954
▁सुर	-955
▁घट	-956
▁रे	-957
▁अति	-958
▁तैय	-959
▁ली	-960
▁कवि	-961
▁विभिन्न	-962
▁समाज	-963
इन	-964
क्रिया	-965
ूद	-966
▁आय	-967
▁देते	-968
▁मुख्य	-969
क्रम	-970
▁कंप	-971
सलमान	-972
ंश	-973
ार्म	-974
▁न्याय	-975
▁ब्रिट	-976
▁स्थिति	-977
ामी	-978
▁जग	-979
▁हिन्द	-980
▁जैसा	-981
▁लगता	-982
or	-983
ंबई	-984
▁कल	-985
यन	-986
▁सम्म	-987
▁ऑ	-988
ष्टि	-989
▁करे	-990
णा	-991
▁थीं	-992
ंदर	-993
▁बड़े	-994
▁सिद्ध	-995
▁प्रत्य	-996
ेर	-997
▁भाव	-998
▁सोच	-999
▁उपलब्	-1000
▁बल्कि	-1001
▁मार्	-1002
al	-1003
सू	-1004
▁कान	-1005
वर्	-1006
▁मुसलमान	-1007
ुत	-1008
▁किंतु	-1009
ंह	-1010
यं	-1011
▁सामने	-1012
भार	-1013
▁सदस्य	-1014
▁पिछ	-1015
▁बिना	-1016
▁यही	-1017
प्	-1018
ोड	-1019
पि	-1020
दार	-1021
▁ऊपर	-1022
म्म	-1023
रूप	-1024
पन्न	-1025
▁समुद	-1026
▁लाख	-1027
▁दूसरी	-1028
मार	-1029
प्त	-1030
▁मी	-1031
▁अकबर	-1032
इस	-1033
▁आया	-1034
▁18	-1035
▁पृ	-1036
न्म	-1037
डियो	-1038
▁अभी	-1039
मत	-1040
▁जिससे	-1041
मता	-1042
▁समान	-1043
दर्	-1044
▁गै	-1045
▁समा	-1046
▁कैसे	-1047
छे	-1048
भाष्	-1049
▁चला	-1050
▁प्रक्रिया	-1051
फा	-1052
▁पक्ष	-1053
▁वी	-1054
▁परिवर्तन	-1055
ao	-1056
ैतिक	-1057
▁खेल	-1058
▁तौर	-1059
▁योग	-1060
▁लेकर	-1061
क्स	-1062
▁प्रार	-1063
▁वाला	-1064
▁देखा	-1065
▁आन	-1066
▁पर्	-1067
▁सम्	-1068
लि	-1069
▁s	-1070
यास	-1071
▁निर्ण	-1072
▁स्वतंत्र	-1073
स्ताव	-1074
▁श्री	-1075
▁दक्षिण	-1076
▁करके	-1077
▁इतिहास	-1078
▁आतंकवाद	-1079
▁राजनी	-1080
▁प्रस्ताव	-1081
▁बह	-1082
नाथ	-1083
▁हमने	-1084
▁धन	-1085
▁दर्	-1086
▁तैयार	-1087
ैंड	-1088
▁उपलब्ध	-1089
▁”	-1090
स्प	-1091
▁गति	-1092
जर	-1093
▁रोग	-1094
▁पुरुष	-1095
is	-1096
हरा	-1097
ृत्य	-1098
▁जिसके	-1099
▁चाहते	-1100
▁200	-1101
▁पहुंच	-1102
ियन	-1103
▁पे	-1104
▁स्वयं	-1105
▁मज	-1106
he	-1107
▁बढ	-1108
ायद	-1109
▁बो	-1110
▁जगह	-1111
तः	-1112
▁6	-1113
▁आध	-1114
ic	-1115
it	-1116
गल	-1117
वरण	-1118
▁अर	-1119
▁वर्षों	-1120
▁शा	-1121
क़्	-1122
▁पत्र	-1123
▁ध्यान	-1124
ित्व	-1125
ग्रह	-1126
ाहरण	-1127
▁पुरा	-1128
दाय	-1129
▁टे	-1130
युक्त	-1131
▁प्रकाश	-1132
▁सहायता	-1133
▁पढ़	-1134
तन	-1135
▁घो	-1136
▁स्क	-1137
▁किस	-1138
▁छोटे	-1139
▁बड़ा	-1140
▁पुन	-1141
▁रंग	-1142
▁फिल्म	-1143
▁बस	-1144
▁सुभाष	-1145
ाने	-1146
▁देता	-1147
▁रचना	-1148
▁स्तर	-1149
▁उत्पादन	-1150
ियम	-1151
▁सिर्	-1152
▁पूरा	-1153
▁कला	-1154
▁खिला	-1155
ुट	-1156
▁बच्चे	-1157
▁देव	-1158
▁मदद	-1159
▁इस्ल	-1160
ँच	-1161
▁शि	-1162
▁जिसका	-1163
म्ब	-1164
▁माना	-1165
स्थान	-1166
वान	-1167
धारण	-1168
▁इस्त	-1169
▁शायद	-1170
ाजिक	-1171
ॉल	-1172
▁काल	-1173
कल	-1174
▁जानकारी	-1175
इल	-1176
▁किये	-1177
▁जबकि	-1178
▁लगे	-1179
▁कठ	-1180
तियों	-1181
▁विषय	-1182
ोजन	-1183
▁चित्र	-1184
▁उद्	-1185
▁सदन	-1186
कट	-1187
डा	-1188
्ह	-1189
कृत	-1190
▁उदाहरण	-1191
▁राजा	-1192
ूरत	-1193
▁पीछे	-1194
▁बैठ	-1195
ालय	-1196
▁पानी	-1197
▁विस्त	-1198
भाग	-1199
▁आने	-1200
▁बेह	-1201
▁आपके	-1202
▁शिक्षा	-1203
▁ज्ञ	-1204
▁पोजी	-1205
▁सामाजिक	-1206
▁वहां	-1207
▁बच्चों	-1208
स्व	-1209
▁व्यवस्था	-1210
इट	-1211
्यालय	-1212
▁नियंत्र	-1213
▁यू	-1214
▁लेने	-1215
▁जन्म	-1216
▁उत	-1217
▁सौ	-1218
▁होगी	-1219
▁विदेश	-1220
▁स्पष्ट	-1221
▁सुन	-1222
▁मनुष	-1223
▁श्र	-1224
▁हिस्	-1225
जों	-1226
▁मानव	-1227
▁पश्चिम	-1228
▁पूर्ण	-1229
▁राष्ट्रपति	-1230
▁पोजीशन	-1231
▁चुना	-1232
▁राय	-1233
▁वाय	-1234
र्थिक	-1235
▁भू	-1236
▁रखा	-1237
▁परिण	-1238
▁पुस्त	-1239
▁हमारी	-1240
▁विद	-1241
▁मेरी	-1242
क़्ति	-1243
यर	-1244
▁बल्ले	-1245
▁अध्यक्ष	-1246
क्ट	-1247
▁ख़	-1248
▁नदी	-1249
▁पहली	-1250
▁समूह	-1251
जे	-1252
▁वाप	-1253
िल्ली	-1254
वाल	-1255
▁आर्थिक	-1256
▁पाकि	-1257
▁निर्णय	-1258
▁गेंद	-1259
वाई	-1260
ाया	-1261
श्चित	-1262
▁प्रेम	-1263
▁संस्कृत	-1264
श्वर	-1265
ंति	-1266
▁शरी	-1267
▁मामले	-1268
▁जनता	-1269
▁मुंबई	-1270
▁सीमा	-1271
▁प्रत्येक	-1272
▁अफ	-1273
डी	-1274
▁सच	-1275
▁बनाया	-1276
▁नीचे	-1277
ुनिक	-1278
▁बने	-1279
▁छोड़	-1280
▁शक्ति	-1281
▁गंगा	-1282
एँ	-1283
▁चे	-1284
ूर्ति	-1285
▁देना	-1286
वों	-1287
भर	-1288
▁सही	-1289
▁रहते	-1290
▁कौ	-1291
▁पेश	-1292
ंथ	-1293
मन	-1294
▁चौ	-1295
ेमाल	-1296
▁२००	-1297
▁संभव	-1298
▁इस्तेमाल	-1299
▁शै	-1300
रिका	-1301
ांति	-1302
▁ठीक	-1303
लो	-1304
▁गो	-1305
िकेट	-1306
▁A	-1307
▁आई	-1308
▁चि	-1309
▁पैदा	-1310
▁रहने	-1311
▁सफल	-1312
▁नेता	-1313
▁प्रदेश	-1314
▁ब्रिटिश	-1315
▁डाल	-1316
▁7	-1317
शील	-1318
▁वर्ग	-1319
▁लक्ष	-1320
▁उसी	-1321
▁माल	-1322
▁मांग	-1323
▁परिणाम	-1324
▁निकल	-1325
▁वस्त	-1326
▁शरीर	-1327
डे	-1328
श्न	-1329
ेशन	-1330
▁प्रण	-1331
▁प्रवेश	-1332
es	-1333
जूद	-1334
▁पार्टी	-1335
▁आत्म	-1336
▁संप	-1337
्राज	-1338
▁लेख	-1339
▁उत्पन्न	-1340
▁महान	-1341
▁विश्वास	-1342
000	-1343
कर्	-1344
ion	-1345
▁टा	-1346
▁सारे	-1347
▁डा	-1348
दम	-1349
▁शी	-1350
▁उत्स	-1351
▁दिल्ली	-1352
▁समित	-1353
▁पर्या	-1354
▁संर	-1355
aa	-1356
▁अच्छा	-1357
▁आधुनिक	-1358
बल	-1359
▁गल	-1360
▁स्वी	-1361
▁वर्ण	-1362
▁गुण	-1363
श्म	-1364
▁मही	-1365
▁मिला	-1366
▁राजन	-1367
▁अमेरिका	-1368
▁क्रिकेट	-1369
▁क्षमता	-1370
▁शु	-1371
▁सल	-1372
भारत	-1373
मंत्र	-1374
पन	-1375
▁सार	-1376
▁भूमिका	-1377
▁तुम	-1378
▁सर्	-1379
▁बल्लेबाज	-1380
ेन	-1381
▁n	-1382
शी	-1383
ड़ों	-1384
▁परंतु	-1385
वीं	-1386
▁करी	-1387
▁सेना	-1388
▁पिछले	-1389
▁प्रथम	-1390
▁परिवार	-1391
▁विरोध	-1392
▁कित	-1393
▁बाल	-1394
▁वायु	-1395
▁आग	-1396
ानों	-1397
स्ल	-1398
▁बंद	-1399
▁उससे	-1400
▁दश	-1401
▁रहता	-1402
द्योगिक	-1403
िष्ट	-1404
▁दुर्	-1405
▁हेतु	-1406
▁बंग	-1407
▁कर्म	-1408
▁वृद्धि	-1409
सभा	-1410
▁नियम	-1411
▁अतिरिक	-1412
सित	-1413
ोलन	-1414
▁अद	-1415
▁मगर	-1416
▁देती	-1417
र्ण	-1418
▁हिंदु	-1419
▁अधिकां	-1420
म्ह	-1421
▁स्कूल	-1422
▁साम्राज	-1423
जह	-1424
▁पत्	-1425
▁अधीन	-1426
▁प्रदान	-1427
▁स्थापित	-1428
▁8	-1429
ताब	-1430
▁रखने	-1431
▁मात्रा	-1432
▁पाकिस्तान	-1433
▁खास	-1434
▁शिक	-1435
▁कोशिश	-1436
▁गण	-1437
▁तुल	-1438
ष्ट्रीय	-1439
दों	-1440
▁हूं	-1441
▁सिर्फ	-1442
▁समाप्त	-1443
▁कुल	-1444
▁देशों	-1445
डऋ	-1446
ताल	-1447
▁चाहे	-1448
▁शुरु	-1449
▁नीति	-1450
ज्ञानिक	-1451
बार	-1452
▁क़्यों	-1453
र्ड	-1454
▁सां	-1455
▁खुद	-1456
▁प्रधान	-1457
लेख	-1458
▁धी	-1459
क्षित	-1460
▁नागर	-1461
नीय	-1462
्यता	-1463
ट्ट	-1464
यां	-1465
▁रोक	-1466
▁अत्य	-1467
▁नौ	-1468
▁आंद	-1469
▁पाल	-1470
न्ध	-1471
▁मक	-1472
▁उद्देश	-1473
▁k	-1474
वन	-1475
▁बल	-1476
▁आकार	-1477
▁अच्छी	-1478
▁भावना	-1479
▁मनुष्य	-1480
हन	-1481
▁मेरा	-1482
▁दृष्टि	-1483
▁संस्कृति	-1484
ष्य	-1485
बाद	-1486
ूरी	-1487
़्या	-1488
▁जहाँ	-1489
▁चा	-1490
▁पं	-1491
▁अपे	-1492
▁विधि	-1493
ंधी	-1494
विध	-1495
यक	-1496
▁c	-1497
इड	-1498
▁कमी	-1499
▁लड़	-1500
▁ज़्यादा	-1501
▁राजनैतिक	-1502
ग्री	-1503
▁वजह	-1504
▁अधिकांश	-1505
▁प्रारंभ	-1506
ूँ	-1507
चान	-1508
ेशा	-1509
▁वापस	-1510
▁स्वीकार	-1511
ठन	-1512
ार्मिक	-1513
▁उनमें	-1514
▁सिद्धांत	-1515
▁तुम्ह	-1516
▁प्रदू	-1517
▁अनुभव	-1518
▁स्थानी	-1519
चीन	-1520
▁याद	-1521
मंत्री	-1522
▁धार्मिक	-1523
हि	-1524
कुल	-1525
▁मृत्य	-1526
▁संख्या	-1527
सम	-1528
▁पृथ	-1529
▁पूरे	-1530
▁होकर	-1531
▁रू	-1532
▁हिन्दू	-1533
▁दिख	-1534
▁समर्थ	-1535
संद	-1536
▁o	-1537
ोस	-1538
▁इतना	-1539
▁ईश्वर	-1540
▁सुधार	-1541
भू	-1542
▁अला	-1543
▁the	-1544
ल्पना	-1545
▁कप	-1546
ित्त	-1547
च्छेद	-1548
▁शासन	-1549
▁विकसित	-1550
▁स्थानीय	-1551
▁गिर	-1552
▁युग	-1553
टक	-1554
िकता	-1555
▁इंड	-1556
▁विध	-1557
ंतिम	-1558
▁ड़	-1559
▁194	-1560
पात	-1561
्यूब	-1562
ed	-1563
▁पुल	-1564
▁अंतिम	-1565
ूं	-1566
▁दिनों	-1567
▁ज़र	-1568
▁तीस	-1569
▁मुक	-1570
▁p	-1571
▁उम	-1572
▁नम	-1573
▁फोन	-1574
▁भेज	-1575
भावना	-1576
▁बिल	-1577
▁हमेशा	-1578
धन	-1579
▁पौ	-1580
▁यूर	-1581
▁आरंभ	-1582
तार	-1583
हरी	-1584
कृति	-1585
▁चीज़	-1586
▁वहाँ	-1587
▁सुरक्षा	-1588
गीत	-1589
▁टन	-1590
▁इनमें	-1591
▁ज्ञान	-1592
वरी	-1593
टन	-1594
▁कहानी	-1595
तान	-1596
बाइल	-1597
चन	-1598
न्तु	-1599
▁अंग	-1600
▁जारी	-1601
▁ताकि	-1602
▁आंदोलन	-1603
शिया	-1604
▁कहीं	-1605
▁हिंदू	-1606
▁केंद्र	-1607
▁दिल	-1608
▁३	-1609
▁199	-1610
▁सिंह	-1611
▁मंत्री	-1612
▁h	-1613
▁कीट	-1614
▁पिता	-1615
▁m	-1616
▁थो	-1617
ेंट	-1618
ीप	-1619
▁ते	-1620
ह्म	-1621
ोर्ट	-1622
▁मिले	-1623
▁क्षेत्रों	-1624
कु	-1625
षि	-1626
मति	-1627
▁डि	-1628
▁बाज	-1629
▁प्रणाली	-1630
▁लिखा	-1631
▁अलावा	-1632
▁मृत्यु	-1633
राज	-1634
▁193	-1635
नेट	-1636
ोधन	-1637
र्चा	-1638
▁जैसी	-1639
▁पांच	-1640
▁गांधी	-1641
▁चीन	-1642
▁आजा	-1643
▁घटना	-1644
▁भीतर	-1645
▁9	-1646
र्स	-1647
▁एस	-1648
▁वही	-1649
▁पुत्र	-1650
▁यूरोप	-1651
as	-1652
▁बच	-1653
▁इनके	-1654
▁विधान	-1655
▁विज्ञान	-1656
ंड़	-1657
▁बर	-1658
▁दिए	-1659
▁चाहता	-1660
जार	-1661
▁इंग	-1662
▁नगर	-1663
पे	-1664
▁तुलना	-1665
▁दूसरा	-1666
▁आधारित	-1667
▁प्राचीन	-1668
▁अंग्रेजी	-1669
▁भग	-1670
▁जवा	-1671
ंबर	-1672
स्म	-1673
▁अंतर्	-1674
▁जानते	-1675
▁प्रयास	-1676
▁आवश्यकता	-1677
▁राजनीतिक	-1678
▁स्वतंत्रता	-1679
चल	-1680
तें	-1681
▁दल	-1682
▁इन्हें	-1683
▁पड़े	-1684
▁संगीत	-1685
▁नियंत्रण	-1686
19	-1687
▁अभि	-1688
▁अध्ययन	-1689
गू	-1690
▁आता	-1691
▁अपरा	-1692
▁विस्तार	-1693
▁वर्त	-1694
▁लाभ	-1695
▁इस्लाम	-1696
▁10	-1697
▁मिलता	-1698
त्या	-1699
▁टीम	-1700
▁बनी	-1701
▁प्रस्त	-1702
न्ट	-1703
ांकि	-1704
पूर्व	-1705
न्होंने	-1706
▁विशिष्ट	-1707
सिद्ध	-1708
▁कहना	-1709
▁क़्योंकि	-1710
लब	-1711
ाये	-1712
▁खो	-1713
▁जिन्हें	-1714
▁व्यापार	-1715
▁अनुच्छेद	-1716
▁फी	-1717
▁जित	-1718
▁उसमें	-1719
▁बताया	-1720
re	-1721
र्च	-1722
▁लाल	-1723
▁मामलों	-1724
▁स्थापना	-1725
▁देखने	-1726
▁बाहरी	-1727
वै	-1728
☻☻	-1729
▁बज	-1730
▁पाया	-1731
▁संस्था	-1732
▁वैज्ञानिक	-1733
▁जिला	-1734
▁न्यू	-1735
▁चुनाव	-1736
ंसा	-1737
▁देखते	-1738
▁भिन्न	-1739
▁आते	-1740
▁प्राय	-1741
▁संबंधित	-1742
ou	-1743
खी	-1744
▁रेल	-1745
▁शता	-1746
▁करीब	-1747
▁जिनमें	-1748
▁अपेक्षा	-1749
,000	-1750
▁निर	-1751
▁कानून	-1752
▁तरीके	-1753
▁संग्रह	-1754
रि	-1755
▁मंड	-1756
▁प्रभावित	-1757
▁करेंगे	-1758
दय	-1759
धीश	-1760
ायी	-1761
▁गी	-1762
स्कार	-1763
▁समिति	-1764
▁यात्रा	-1765
▁b	-1766
र्ग	-1767
▁12	-1768
▁दशक	-1769
▁प्रश्न	-1770
▁लौ	-1771
▁दर्श	-1772
▁प्रो	-1773
▁विमान	-1774
▁भे	-1775
▁खोज	-1776
▁बेहतर	-1777
▁प्रशासन	-1778
▁छोटी	-1779
▁नामक	-1780
न्द्रनाथ	-1781
▁पूछ	-1782
▁आदेश	-1783
▁सरकारी	-1784
▁हालांकि	-1785
▁१५	-1786
ड्	-1787
सत	-1788
सों	-1789
▁15	-1790
▁कॉ	-1791
▁कंपनी	-1792
▁करोड़	-1793
▁उद्देश्य	-1794
▁भूमि	-1795
▁संयुक्त	-1796
▁मुसलमानों	-1797
ंगे	-1798
▁जाएगा	-1799
▁महाभारत	-1800
जली	-1801
वेद	-1802
▁नये	-1803
▁नेपाल	-1804
▁सहयोग	-1805
▁प्रतिनि	-1806
हित	-1807
▁बचा	-1808
▁पुलिस	-1809
षद	-1810
पान	-1811
▁आए	-1812
▁कुर	-1813
▁रिप	-1814
▁ब्रह्म	-1815
विद	-1816
▁भवि	-1817
▁पसंद	-1818
कृ	-1819
निक	-1820
▁मानते	-1821
▁व्यक्त	-1822
▁केन्द्र	-1823
▁मश	-1824
ब्दी	-1825
▁ऊंच	-1826
▁बोल	-1827
▁सूचना	-1828
▁मोबाइल	-1829
▁मर	-1830
▁उल्	-1831
▁क्रिया	-1832
▁नागरिक	-1833
साय	-1834
▁उनसे	-1835
▁होंगे	-1836
▁पुस्तक	-1837
▁स्वास्थ	-1838
वस्था	-1839
▁प्रती	-1840
▁प्रतिक	-1841
धिकार	-1842
▁धीरे	-1843
▁वर्तमान	-1844
▁चुन	-1845
▁पाठ	-1846
▁अच्छे	-1847
िले	-1848
▁चुके	-1849
मह	-1850
तया	-1851
▁20	-1852
▁माध्य	-1853
▁भविष्य	-1854
▁अदाल	-1855
▁सलाह	-1856
कत	-1857
ष्क	-1858
▁दिश	-1859
▁विद्य	-1860
▁सार्व	-1861
▁मार	-1862
▁अधिन	-1863
▁तकनी	-1864
ज़ा	-1865
▁बर्	-1866
▁मिलने	-1867
धानी	-1868
▁रवी	-1869
▁उम्र	-1870
▁जरूरत	-1871
▁नई	-1872
▁जाति	-1873
▁हिस्सा	-1874
सं	-1875
▁नए	-1876
▁पड़ा	-1877
▁लागू	-1878
▁गं	-1879
▁दिशा	-1880
लू	-1881
▁S	-1882
▁उठा	-1883
स्यों	-1884
▁लेते	-1885
▁कविता	-1886
▁निकाल	-1887
एस	-1888
▁197	-1889
▁रहती	-1890
▁हिंदुस्तान	-1891
▁सात	-1892
▁पहला	-1893
▁जिसने	-1894
▁ईसा	-1895
▁लंब	-1896
▁कार्यक्रम	-1897
▁आख	-1898
िस्ट	-1899
▁लगी	-1900
iv	-1901
टे	-1902
▁मुकद	-1903
ृह	-1904
▁दस	-1905
▁सर्वो	-1906
▁अह	-1907
▁निर्देश	-1908
▁खे	-1909
▁विप	-1910
▁अन्त	-1911
▁सत्ता	-1912
ीर	-1913
द्यपि	-1914
▁बिजली	-1915
्प	-1916
▁192	-1917
▁आती	-1918
▁विशाल	-1919
्ला	-1920
▁आयु	-1921
▁सुना	-1922
▁मार्ग	-1923
ोने	-1924
▁सै	-1925
▁चर्चा	-1926
▁विदेशी	-1927
▁d	-1928
्ले	-1929
र्जा	-1930
▁वेद	-1931
▁ह्य	-1932
▁बनाए	-1933
▁द्वीप	-1934
▁शताब्दी	-1935
▁तथ	-1936
▁गां	-1937
▁प्रसिद्ध	-1938
▁w	-1939
▁संभावना	-1940
le	-1941
▁मुह	-1942
▁कल्पना	-1943
▁यद्यपि	-1944
यह	-1945
मंड	-1946
▁धर	-1947
▁अरब	-1948
▁पाने	-1949
▁पदार्थ	-1950
पु	-1951
ैनिक	-1952
▁चुका	-1953
▁सकें	-1954
▁दीवार	-1955
उस	-1956
▁संश	-1957
▁त्र	-1958
▁संपर्क	-1959
▁निश्चित	-1960
गति	-1961
▁हिम	-1962
पालिका	-1963
▁अधिकारी	-1964
▁बंगाल	-1965
▁बच्चन	-1966
▁स्म	-1967
धारित	-1968
▁मिली	-1969
▁अपराध	-1970
▁ट्यूब	-1971
▁प्रजा	-1972
▁वर्णन	-1973
▁विवाद	-1974
▁नयी	-1975
▁जम	-1976
दर्शन	-1977
▁दिये	-1978
▁मतलब	-1979
▁उल्लेख	-1980
▁संघर्ष	-1981
यात	-1982
ियत	-1983
स्वी	-1984
▁नया	-1985
▁नियु	-1986
▁देखें	-1987
ियर	-1988
च्छा	-1989
▁समाचार	-1990
▁सदस्यों	-1991
जो	-1992
▁सहित	-1993
ज्ह	-1994
▁जमा	-1995
▁दंड	-1996
▁अप्र	-1997
▁माध्यम	-1998
▁स्वास्थ्य	-1999
नो	-2000
किल	-2001
ूनी	-2002
▁C	-2003
▁अंतर्गत	-2004
सऋ	-2005
इयों	-2006
▁एशिया	-2007
▁विडियो	-2008
चि	-2009
्रोत	-2010
▁अवसर	-2011
गु	-2012
▁निकट	-2013
▁पश्चिमी	-2014
डिया	-2015
▁तरफ	-2016
▁इतनी	-2017
▁उचित	-2018
▁प्रे	-2019
▁राज़्य	-2020
टल	-2021
▁of	-2022
▁नर	-2023
▁रन	-2024
▁शांति	-2025
▁पक	-2026
▁परंप	-2027
▁पड़ता	-2028
▁सर्वा	-2029
▁समर्थन	-2030
▁अधिनियम	-2031
▁संख़्या	-2032
गम	-2033
ुप	-2034
▁सऋ	-2035
▁विधे	-2036
विद्यालय	-2037
धु	-2038
्रम	-2039
▁सत	-2040
▁हमारा	-2041
▁राजस्थान	-2042
▁न्यायाधीश	-2043
बे	-2044
हरे	-2045
▁परंपरा	-2046
▁सम्मान	-2047
▁रिपोर्ट	-2048
ac	-2049
▁आदमी	-2050
▁महीने	-2051
▁मुख़्य	-2052
▁समुदाय	-2053
ing	-2054
भीर	-2055
▁निर्भर	-2056
▁ट्र	-2057
सूस	-2058
▁कौन	-2059
▁गरी	-2060
प्रिय	-2061
▁आनंद	-2062
▁सारी	-2063
▁अध्या	-2064
▁खिलाफ	-2065
▁मिलती	-2066
▁कोशिका	-2067
▁संबंधी	-2068
▁प्रस्तुत	-2069
त्स	-2070
▁नमू	-2071
▁सीख	-2072
▁तत्व	-2073
▁शक्त	-2074
▁सीधे	-2075
▁उपकरण	-2076
बि	-2077
पत्र	-2078
दर्भ	-2079
▁जाय	-2080
▁मिश	-2081
▁गर्म	-2082
▁महसूस	-2083
ठी	-2084
ज़र	-2085
▁चाल	-2086
्न	-2087
र्ज	-2088
संख	-2089
बाबू	-2090
विधा	-2091
▁जिसकी	-2092
▁सीमित	-2093
▁पर्व	-2094
▁मात्र	-2095
▁लक्ष्य	-2096
खर	-2097
पित	-2098
ास्त्र	-2099
▁अदालत	-2100
▁चम	-2101
▁तम	-2102
कालीन	-2103
▁चलते	-2104
▁प्रव	-2105
▁संदर्भ	-2106
जनिक	-2107
▁खरी	-2108
▁ताप	-2109
्लैंड	-2110
▁वित्त	-2111
▁शब्दों	-2112
हृ	-2113
ायण	-2114
िको	-2115
▁पाए	-2116
▁भाई	-2117
▁सूर	-2118
▁सवाल	-2119
▁हिंदी	-2120
▁पृथ्वी	-2121
▁औद्योगिक	-2122
▁प्रकाशित	-2123
ol	-2124
्मण	-2125
▁रवीन्द्रनाथ	-2126
आत	-2127
▁गैर	-2128
▁मोट	-2129
▁अवधि	-2130
▁पर्याप्त	-2131
ंतर	-2132
▁जर्म	-2133
▁जांच	-2134
▁रखते	-2135
▁गंभीर	-2136
षित	-2137
▁मित्र	-2138
ानि	-2139
▁संय	-2140
▁पूर्	-2141
शल	-2142
▁गुफा	-2143
▁धारा	-2144
▁सूची	-2145
▁दिखाई	-2146
et	-2147
िज	-2148
▁नव	-2149
▁द्वार	-2150
▁आपकी	-2151
▁घोषण	-2152
▁उपस्थित	-2153
▁[	-2154
▁क्रम	-2155
am	-2156
रल	-2157
ंटर	-2158
▁खिल	-2159
▁मना	-2160
▁संत	-2161
▁अंदर	-2162
▁भारी	-2163
▁सर्वाधिक	-2164
▁निर्धारित	-2165
▁प्रय	-2166
▁समुद्र	-2167
▁विश्वविद्यालय	-2168
र्न	-2169
▁छा	-2170
▁इन्	-2171
▁ताज	-2172
्यवाद	-2173
▁कार्	-2174
▁अतिरिक्त	-2175
▁सार्वजनिक	-2176
लग	-2177
तौर	-2178
म्न	-2179
▁वन	-2180
दर्श	-2181
▁बाव	-2182
▁शिव	-2183
चित्र	-2184
स्कृत	-2185
▁जिनके	-2186
फ्त	-2187
द्दी	-2188
▁आवा	-2189
▁परी	-2190
▁फल	-2191
▁गर्	-2192
स्लिम	-2193
▁अनुमान	-2194
राब	-2195
ल्क	-2196
ायर	-2197
▁नजर	-2198
▁धा	-2199
▁विभाज	-2200
▁प्रगति	-2201
▁व्यापक	-2202
▁साधारण	-2203
▁I	-2204
लाई	-2205
▁गलत	-2206
द्द	-2207
न्थ	-2208
▁मैच	-2209
ent	-2210
▁मि	-2211
▁अंड	-2212
▁निजी	-2213
▁प्रमाण	-2214
▁किन	-2215
▁घंट	-2216
▁स्थानों	-2217
म्प	-2218
▁राज्यों	-2219
भाल	-2220
्यो	-2221
ुद्ध	-2222
▁साफ	-2223
गार	-2224
▁इल	-2225
▁आये	-2226
▁छोटा	-2227
▁६	-2228
▁जीन	-2229
▁ग्रह	-2230
▁लिंग	-2231
▁वाता	-2232
गरी	-2233
▁खत	-2234
▁अभिय	-2235
▁निर्वा	-2236
▁बावजूद	-2237
रू	-2238
क्टर	-2239
बद्ध	-2240
िरा	-2241
▁पुरस्कार	-2242
▁f	-2243
▁कहला	-2244
▁अर्था	-2245
▁संसार	-2246
▁प्रधानमंत्री	-2247
ंजी	-2248
▁अगले	-2249
▁अनुमति	-2250
▁मंदिरों	-2251
▁प्रशिक्ष	-2252
il	-2253
ro	-2254
करी	-2255
▁195	-2256
▁मशीन	-2257
▁सामग्री	-2258
▁वास्तविक	-2259
▁तेल	-2260
▁कश्म	-2261
▁नेहर	-2262
▁गेंदबाज	-2263
▁वातावरण	-2264
▁आश	-2265
▁रुप	-2266
▁मैदान	-2267
▁विधेयक	-2268
▁५	-2269
▁सफ	-2270
प्ता	-2271
▁कथा	-2272
ष्ट्र	-2273
▁किताब	-2274
▁पुराण	-2275
▁विभाग	-2276
ंका	-2277
वंश	-2278
▁एन	-2279
▁डी	-2280
▁बौ	-2281
वायु	-2282
▁इला	-2283
▁चिक	-2284
▁करनी	-2285
▁बदला	-2286
id	-2287
बन	-2288
▁शे	-2289
▁हृ	-2290
बन्ध	-2291
०००	-2292
▁ति	-2293
ेदार	-2294
ोड़े	-2295
▁वार	-2296
▁पर्य	-2297
▁सुंदर	-2298
▁मुस्लिम	-2299
ंघ	-2300
िद	-2301
▁रि	-2302
त्ति	-2303
▁युवा	-2304
▁शैली	-2305
▁कृष्ण	-2306
देव	-2307
ेंस	-2308
▁लक	-2309
▁जल्	-2310
▁शाह	-2311
▁हवा	-2312
▁दर्शन	-2313
▁निम्न	-2314
▁T	-2315
▁उल	-2316
▁चीज	-2317
▁नेहरू	-2318
▁अमेरिक	-2319
▁अवस्था	-2320
▁16	-2321
▁भु	-2322
ार्ड	-2323
▁पालन	-2324
शु	-2325
ंसी	-2326
ायक	-2327
ौती	-2328
ान्त	-2329
▁जोड़	-2330
▁शीर्ष	-2331
▁निर्मित	-2332
ंव	-2333
▁शास	-2334
▁मुद्	-2335
ंगी	-2336
िवार	-2337
ृत्त	-2338
▁जहा	-2339
▁जेल	-2340
▁भोजन	-2341
▁आजादी	-2342
▁विवाह	-2343
▁सुभाषबाबू	-2344
▁;	-2345
▁तय	-2346
▁पारित	-2347
▁भगवान	-2348
▁जलवायु	-2349
▁पुराने	-2350
▁सुविधा	-2351
मो	-2352
▁४	-2353
▁औसत	-2354
▁कदम	-2355
▁क्ल	-2356
कृतिक	-2357
▁रखना	-2358
▁प्रचार	-2359
▁राजधानी	-2360
चाल	-2361
▁तट	-2362
मारी	-2363
▁अग्र	-2364
हत	-2365
▁ऑफ	-2366
▁१८	-2367
▁दें	-2368
▁खाना	-2369
▁रेलवे	-2370
चक	-2371
▁अमरी	-2372
▁इमार	-2373
▁बढ़ा	-2374
▁माता	-2375
▁चारों	-2376
▁पहचान	-2377
▁लगाया	-2378
im	-2379
▁अस्त	-2380
▁घोषणा	-2381
▁जिम	-2382
▁जवाब	-2383
▁क़्या	-2384
▁लोकप्रिय	-2385
▁घु	-2386
▁nan	-2387
▁संके	-2388
▁198	-2389
▁करा	-2390
▁करवा	-2391
▁खर्च	-2392
▁राजनीति	-2393
िना	-2394
▁धार	-2395
▁वाद	-2396
़्त	-2397
▁इंटर	-2398
▁मानस	-2399
▁रक्षा	-2400
▁लगाने	-2401
राष्ट्रीय	-2402
टने	-2403
▁25	-2404
▁अक्	-2405
▁यून	-2406
त्रों	-2407
्रीका	-2408
▁कृषि	-2409
तक	-2410
नु	-2411
ाव	-2412
र्द	-2413
▁इनकी	-2414
▁तापमान	-2415
णु	-2416
ज़ी	-2417
▁खंड	-2418
▁दबा	-2419
▁बाग	-2420
▁गहरा	-2421
▁विद्व	-2422
उन	-2423
भु	-2424
and	-2425
टना	-2426
ितीय	-2427
▁उपर	-2428
▁ढंग	-2429
▁तत्	-2430
▁तस्वी	-2431
▁उत्तरी	-2432
तृत	-2433
म्भ	-2434
▁आक	-2435
वाही	-2436
▁गाँ	-2437
▁सौर	-2438
▁व्यवहार	-2439
टिल	-2440
▁सभ	-2441
▁196	-2442
▁आरोप	-2443
▁तर्क	-2444
▁लगों	-2445
▁सफलता	-2446
दीय	-2447
▁गुर	-2448
▁जंग	-2449
▁कुरान	-2450
▁पहुँच	-2451
▁बाजार	-2452
▁संशोधन	-2453
▁प्रकृति	-2454
चर	-2455
▁कब	-2456
▁शोध	-2457
▁लेना	-2458
▁शिकाय	-2459
जिए	-2460
पास	-2461
▁चले	-2462
▁हास	-2463
्रिया	-2464
▁P	-2465
▁उड़	-2466
▁जीत	-2467
▁फ्र	-2468
▁विज	-2469
▁कठिन	-2470
▁मार्च	-2471
▁पूर्वी	-2472
▁विचारों	-2473
▁प्राकृतिक	-2474
महल	-2475
▁इं	-2476
▁पहा	-2477
▁बेट	-2478
▁वेब	-2479
▁अक्सर	-2480
▁संदेश	-2481
रात	-2482
▁मॉ	-2483
भाषा	-2484
▁आशा	-2485
▁सिर	-2486
▁पंजा	-2487
▁पत्थ	-2488
▁शाखा	-2489
▁ग्रंथ	-2490
ड़ै	-2491
्रेट	-2492
्यूटर	-2493
▁कक्ष	-2494
▁हजार	-2495
▁परिस्थित	-2496
▁कबी	-2497
▁इनका	-2498
▁चुकी	-2499
ूब	-2500
▁आनु	-2501
ात्मक	-2502
▁मंडप	-2503
स्वरूप	-2504
एक	-2505
्रिय	-2506
▁रात	-2507
▁ऊर्जा	-2508
▁चाहिये	-2509
त्न	-2510
्लो	-2511
म्मद	-2512
▁लक्षण	-2513
▁संरचना	-2514
▁प्रदूषण	-2515
▁समस्याओं	-2516
ड़क	-2517
▁दौ	-2518
ख्या	-2519
▁आयोग	-2520
▁पूजा	-2521
▁आदर्श	-2522
▁बौद्ध	-2523
▁कोल	-2524
तृत्व	-2525
▁आसान	-2526
▁सूर्	-2527
▁हृदय	-2528
▁इच्छा	-2529
▁करेगा	-2530
स्कृतिक	-2531
आन	-2532
उट	-2533
वली	-2534
लाइन	-2535
▁बिल्	-2536
▁अत्यधिक	-2537
▁साम्राज्य	-2538
aoM	-2539
▁14	-2540
▁अख	-2541
ोजित	-2542
▁तेजी	-2543
▁काव्य	-2544
ir	-2545
▁असर	-2546
▁अनुस	-2547
प्रदाय	-2548
▁जिनका	-2549
ँसी	-2550
चंद	-2551
दिक	-2552
▁एम	-2553
▁भौ	-2554
द्दीन	-2555
▁चलता	-2556
▁मैने	-2557
▁समझा	-2558
▁तरीका	-2559
▁मूल्य	-2560
परि	-2561
ीकरण	-2562
▁लिखी	-2563
▁ब्राह	-2564
डल	-2565
ैल	-2566
्राम	-2567
▁इस्	-2568
▁वाह	-2569
न्यास	-2570
▁उद्योगों	-2571
दास	-2572
श्किल	-2573
▁कहान	-2574
▁बातों	-2575
▁भागों	-2576
▁अधिकारियों	-2577
एम	-2578
धर	-2579
▁2.	-2580
न्दर	-2581
▁भाषण	-2582
▁संगम	-2583
▁जापान	-2584
्राष्ट्रीय	-2585
▁तेज	-2586
▁पीठ	-2587
▁ताकत	-2588
धीन	-2589
▁अक्ष	-2590
ानु	-2591
▁कोय	-2592
▁हित	-2593
▁संकेत	-2594
▁मौजूद	-2595
▁संसदीय	-2596
ंकि	-2597
ॉलर	-2598
▁11	-2599
▁गू	-2600
ोनें	-2601
▁द्र	-2602
▁मनो	-2603
क्रमण	-2604
▁पार्	-2605
▁सत्य	-2606
▁बुद्ध	-2607
▁वालों	-2608
ूत	-2609
यान	-2610
ल्ड	-2611
▁जे	-2612
▁बॉ	-2613
▁आत्मा	-2614
▁आमतौर	-2615
▁प्रतिनिध	-2616
▁व्यक़्ति	-2617
ad	-2618
दु	-2619
मेंट	-2620
▁बैं	-2621
वर्ती	-2622
▁क़ुर	-2623
▁निवेश	-2624
▁सुरक्षित	-2625
माग	-2626
ल्स	-2627
▁चर	-2628
त्मा	-2629
ation	-2630
▁आपका	-2631
▁तथ्य	-2632
▁समझौ	-2633
▁कार्र	-2634
और	-2635
▁0	-2636
ँचा	-2637
▁घा	-2638
▁लो	-2639
▁चरण	-2640
▁जाल	-2641
▁सदी	-2642
▁खरीद	-2643
▁मजबू	-2644
▁जनवरी	-2645
▁स्तंभ	-2646
▁किन्तु	-2647
तरी	-2648
हीन	-2649
▁ढा	-2650
▁नद	-2651
▁मुद	-2652
▁रहना	-2653
▁जनसंख	-2654
▁नेतृत्व	-2655
▁सर्वोच्च	-2656
ढ़ी	-2657
मिक	-2658
▁जोर	-2659
▁फैस	-2660
▁विन	-2661
▁निभा	-2662
▁प्रौ	-2663
▁बनने	-2664
▁उपबंध	-2665
▁जरूरी	-2666
▁प्रकट	-2667
▁धन्यवाद	-2668
▁सांस्कृतिक	-2669
ec	-2670
▁धु	-2671
▁तुर	-2672
▁कबीर	-2673
▁सत्र	-2674
▁पश्चात	-2675
▁सक्रिय	-2676
st	-2677
ठा	-2678
▁जय	-2679
▁सन	-2680
▁परम	-2681
▁वंश	-2682
▁पाँच	-2683
▁वैसे	-2684
▁सूर्य	-2685
ay	-2686
el	-2687
▁बंध	-2688
कारों	-2689
▁अनुर	-2690
▁कोर्ट	-2691
▁कश्मीर	-2692
ंबा	-2693
▁मधु	-2694
▁सहायक	-2695
▁स्वीक	-2696
▁शुरुआत	-2697
▁बिल्कुल	-2698
▁संपूर्ण	-2699
▁हल	-2700
वरों	-2701
▁माँ	-2702
ांतिक	-2703
▁मिलते	-2704
.”	-2705
ज्	-2706
्वर	-2707
िस्त	-2708
▁असल	-2709
▁गुज	-2710
▁पत्नी	-2711
▁परिषद	-2712
षऋ	-2713
वीय	-2714
▁आठ	-2715
चलित	-2716
ेप	-2717
विक	-2718
▁13	-2719
▁हथ	-2720
र्जन	-2721
कर्ता	-2722
▁अपील	-2723
▁जटिल	-2724
▁जर्मनी	-2725
ृंख	-2726
▁फर	-2727
▁कलक	-2728
▁देवी	-2729
▁पद्ध	-2730
▁बनाई	-2731
▁सच्च	-2732
ड़ियों	-2733
▁बनाये	-2734
▁ताजमहल	-2735
▁मुश्किल	-2736
ग्	-2737
▁आंक	-2738
▁रिक	-2739
▁हटा	-2740
▁मस्त	-2741
▁हस्त	-2742
▁मानना	-2743
▁संगठन	-2744
▁अंतरराष्ट्रीय	-2745
त्री	-2746
▁मुगल	-2747
▁रिया	-2748
▁दृष्ट	-2749
▁प्रबंध	-2750
▁मीडिया	-2751
▁1.	-2752
दारी	-2753
▁चिकित	-2754
▁वैदिक	-2755
▁भाषाओं	-2756
▁अमेरिकी	-2757
सन	-2758
ोष	-2759
ंदा	-2760
▁खान	-2761
▁गांव	-2762
▁निष्	-2763
▁परेश	-2764
▁बातें	-2765
▁प्रतिक्रिया	-2766
सरे	-2767
▁पढ	-2768
्यार	-2769
▁आपने	-2770
▁धरती	-2771
▁उच्चतम	-2772
▁मुहम्मद	-2773
▁री	-2774
▁हार	-2775
▁जमीन	-2776
▁ग़	-2777
मात्र	-2778
▁विविध	-2779
▁हासिल	-2780
ूबर	-2781
▁काय	-2782
प्ताह	-2783
▁इतने	-2784
▁बाकी	-2785
युक़्त	-2786
▁बनाना	-2787
िनी	-2788
ंदगी	-2789
▁सरल	-2790
▁१९९	-2791
▁विवे	-2792
▁शिखर	-2793
▁स्थल	-2794
▁जायेगा	-2795
काब	-2796
▁आसपास	-2797
▁दिमाग	-2798
▁इस्पात	-2799
).	-2800
फे	-2801
वट	-2802
▁g	-2803
ष्म	-2804
▁(19	-2805
▁आलो	-2806
▁स्वरूप	-2807
देवी	-2808
माने	-2809
वासी	-2810
▁अके	-2811
▁सित	-2812
▁खत्म	-2813
▁फैला	-2814
▁नेताओं	-2815
om	-2816
एन	-2817
लीय	-2818
▁यो	-2819
▁आउट	-2820
▁तभी	-2821
▁दोष	-2822
▁प्रेर	-2823
व्यवस्था	-2824
तऋ	-2825
फर	-2826
▁a	-2827
▁इका	-2828
कृष्ण	-2829
धानिक	-2830
▁फ़िर	-2831
साधारण	-2832
▁आनुवंश	-2833
कम	-2834
▁डॉ	-2835
हँसी	-2836
▁दूध	-2837
▁बरा	-2838
क्ष्म	-2839
▁अर्ज	-2840
▁हाथों	-2841
▁जिन्होंने	-2842
खे	-2843
ैर	-2844
कान	-2845
ठित	-2846
िकोण	-2847
▁अभिया	-2848
▁नैतिक	-2849
▁ब्रिटेन	-2850
▁M	-2851
चीत	-2852
ामा	-2853
▁सेल	-2854
▁पैसे	-2855
▁सम्मिल	-2856
शि	-2857
दिन	-2858
▁एल	-2859
▁डर	-2860
▁किरा	-2861
▁अनुवाद	-2862
▁रामायण	-2863
▁साम्राज़्य	-2864
भूत	-2865
्ता	-2866
▁17	-2867
▁50	-2868
▁एच	-2869
त्साह	-2870
▁वहीं	-2871
ाब	-2872
▁गाय	-2873
▁मास	-2874
ल्लाह	-2875
▁संरक्षण	-2876
▁ब्राह्मण	-2877
ंता	-2878
रान	-2879
▁ऋस	-2880
▁डे	-2881
▁उन्	-2882
▁फार	-2883
▁केंद	-2884
▁पकड़	-2885
▁लगातार	-2886
▁प्रेरित	-2887
ut	-2888
्वे	-2889
▁30	-2890
▁फीस	-2891
ृंखला	-2892
▁प्रसार	-2893
▁बीमारी	-2894
कीय	-2895
▁तल	-2896
▁फा	-2897
▁खोल	-2898
▁दीव	-2899
▁संह	-2900
ियोजना	-2901
▁बातचीत	-2902
▁अंतर्राष्ट्रीय	-2903
..	-2904
दूर	-2905
▁संकल	-2906
▁जल्दी	-2907
▁बदलाव	-2908
▁शिकार	-2909
घा	-2910
सु	-2911
द्व	-2912
सान	-2913
ष्णु	-2914
▁कृत	-2915
▁गैस	-2916
▁गरीब	-2917
पूर्वक	-2918
▁मुकाब	-2919
▁योग्य	-2920
तिहासिक	-2921
▁पुरानी	-2922
संग	-2923
हाद	-2924
▁फौ	-2925
▁टाइ	-2926
▁पंच	-2927
▁दोस्त	-2928
▁साक्ष	-2929
▁अधिकतर	-2930
▁शिकायत	-2931
▁अधिकारों	-2932
ब्ब	-2933
्याग	-2934
▁बराबर	-2935
▁मूर्ति	-2936
▁संहिता	-2937
थी	-2938
भि	-2939
हाल	-2940
▁फे	-2941
▁मिन	-2942
वित्र	-2943
▁टेली	-2944
▁लेती	-2945
▁हिमालय	-2946
▁विस्तृत	-2947
▁केंद्रीय	-2948
▁ज्यादातर	-2949
▁पर्यावरण	-2950
▁प्रेमचंद	-2951
▁सम्मिलित	-2952
ot	-2953
वर्ष	-2954
▁अहम	-2955
▁अस्प	-2956
▁नष्ट	-2957
▁in	-2958
▁आफ	-2959
▁असली	-2960
▁उपाय	-2961
▁लिखे	-2962
▁सोचा	-2963
▁पूंजी	-2964
▁पृष्ठ	-2965
▁रास्त	-2966
▁परियोजना	-2967
ौल	-2968
▁आकर	-2969
▁समक्ष	-2970
▁सामना	-2971
▁तस्वीर	-2972
▁जनसंख्या	-2973
१९	-2974
जनक	-2975
िट्	-2976
▁दिव	-2977
▁बसव	-2978
▁रखी	-2979
▁लम्	-2980
▁किस्म	-2981
▁संक्ष	-2982
▁चन्द्र	-2983
▁परन्तु	-2984
पक	-2985
ंदी	-2986
रीत	-2987
▁आयी	-2988
▁बाँ	-2989
▁वाक	-2990
वत्ता	-2991
▁आगरा	-2992
▁पत्थर	-2993
▁विकेट	-2994
द्योगिकी	-2995
लेज	-2996
धारा	-2997
▁विल	-2998
▁सिक	-2999
▁मकान	-3000
▁लाने	-3001
▁आकर्ष	-3002
▁जिम्म	-3003
▁विपरीत	-3004
▁न्यायिक	-3005
▁व्यक्तियों	-3006
िटी	-3007
▁मई	-3008
▁शो	-3009
म्बर	-3010
नियों	-3011
▁कीमत	-3012
▁तंत्र	-3013
▁महारा	-3014
▁प्रशिक्षण	-3015
▁फॉ	-3016
▁बेच	-3017
▁शेष	-3018
▁आखिर	-3019
▁दोनो	-3020
▁जितना	-3021
▁संयंत्र	-3022
▁क्रांतिक	-3023
▁गुणवत्ता	-3024
ter	-3025
खित	-3026
फोन	-3027
वें	-3028
त्तर	-3029
▁देर	-3030
न्त्र	-3031
▁मीटर	-3032
▁उन्हे	-3033
▁बहुमत	-3034
▁समझने	-3035
▁स्रोत	-3036
▁लोकसभा	-3037
aI	-3038
▁इसने	-3039
स्तानी	-3040
▁तकनीक	-3041
▁मस्ति	-3042
▁अनिवार	-3043
▁मुकदमा	-3044
▁स्त्री	-3045
▁उपन्यास	-3046
▁उन्होनें	-3047
ak	-3048
क्षक	-3049
▁भ्र	-3050
▁संक	-3051
▁साध	-3052
▁साब	-3053
▁कितना	-3054
▁कानूनी	-3055
▁नेताजी	-3056
▁पवित्र	-3057
▁विरोधी	-3058
▁अतिरिक़्त	-3059
-1	-3060
.)	-3061
तना	-3062
▁अली	-3063
▁नार	-3064
▁कर्त	-3065
▁नियमित	-3066
▁नियमों	-3067
▁मंत्रि	-3068
▁योगदान	-3069
▁रास्ता	-3070
▁सेवाओं	-3071
▁व्यक्तिगत	-3072
मल	-3073
▁B	-3074
▁बुला	-3075
▁रेखा	-3076
▁होनी	-3077
वासियों	-3078
▁बुनिया	-3079
दर	-3080
शाह	-3081
▁अत	-3082
ूंकि	-3083
▁सारा	-3084
▁अर्थात	-3085
▁प्राथम	-3086
▁खिलाड़ी	-3087
▁द्वितीय	-3088
▁कार्रवाई	-3089
▁ः	-3090
ेदन	-3091
▁छह	-3092
▁टै	-3093
▁वर	-3094
▁अफग	-3095
▁नस्ल	-3096
▁इंडिया	-3097
▁सभ्यता	-3098
ूक	-3099
▁खी	-3100
साइड	-3101
▁मुय	-3102
▁जाकर	-3103
▁अफ्रीका	-3104
▁विरुद्ध	-3105
os	-3106
▁माह	-3107
▁मिट	-3108
▁मौसम	-3109
▁वेतन	-3110
▁उत्सर्जन	-3111
अर	-3112
साद	-3113
श्ले	-3114
▁अवि	-3115
▁श्ल	-3116
▁उनको	-3117
▁कठोर	-3118
▁रक्त	-3119
▁लेता	-3120
▁चाहती	-3121
▁कलकत्ता	-3122
▁७	-3123
जीव	-3124
नें	-3125
चानक	-3126
▁रखे	-3127
▁आश्च	-3128
▁पाते	-3129
▁मजबूत	-3130
▁श्लोक	-3131
शास्त्र	-3132
▁चुनौती	-3133
▁l	-3134
▁पाई	-3135
▁मेल	-3136
▁भेजा	-3137
▁लड़ा	-3138
▁पद्धति	-3139
▁सप्ताह	-3140
▁संस्थान	-3141
▁अनिवार्य	-3142
▁इंग्लैंड	-3143
▁v	-3144
▁सप	-3145
वेदन	-3146
हंसी	-3147
▁उपभ	-3148
▁पेट	-3149
▁घंटे	-3150
▁लेखक	-3151
▁हिंसा	-3152
▁एकमात्र	-3153
▁निर्यात	-3154
▁अस्तित्व	-3155
याँ	-3156
लाल	-3157
िकी	-3158
िप्त	-3159
▁191	-3160
▁सतह	-3161
▁अधिव	-3162
▁तमिल	-3163
▁पंजाब	-3164
▁इस्लामी	-3165
▁क्रांति	-3166
▁प्रचलित	-3167
▁८	-3168
her	-3169
मीटर	-3170
▁इंस	-3171
▁संब	-3172
▁एकता	-3173
▁हवाई	-3174
▁चूंकि	-3175
▁देखभाल	-3176
▁हिस्से	-3177
▁उत्तरदाय	-3178
हे	-3179
▁E	-3180
गोल	-3181
▁घरे	-3182
▁आयात	-3183
▁मानवीय	-3184
▁प्रोत्साह	-3185
ur	-3186
रो	-3187
िली	-3188
न्या	-3189
भावी	-3190
▁अचानक	-3191
▁घोषित	-3192
▁त्याग	-3193
▁पाण्ड	-3194
▁प्रदूष	-3195
▁विष्णु	-3196
▁दक्षिणी	-3197
▁ऐतिहासिक	-3198
तल	-3199
▁बजा	-3200
▁मंच	-3201
▁शिश	-3202
ेश्वर	-3203
▁तुरंत	-3204
▁मिलकर	-3205
▁व्याव	-3206
▁कंप्यूटर	-3207
▁प्रदर्शन	-3208
▁कार्यवाही	-3209
▁कव	-3210
▁लख	-3211
रिया	-3212
िल्प	-3213
▁मिनट	-3214
▁कितनी	-3215
▁रास्ते	-3216
▁आश्चर्य	-3217
▁अंग्रेजों	-3218
▁दृष्टिकोण	-3219
लिक	-3220
▁चीनी	-3221
▁दावा	-3222
▁फीसदी	-3223
▁बदलने	-3224
▁इंटरनेट	-3225
▁ब्रह्मा	-3226
▁and	-3227
▁गठन	-3228
▁गृह	-3229
▁वाज	-3230
ेंद्र	-3231
▁खुले	-3232
▁बंबई	-3233
▁लिपि	-3234
▁साबित	-3235
▁न्यायालयों	-3236
नर	-3237
धों	-3238
रीय	-3239
ोटो	-3240
ष्ठा	-3241
▁तार	-3242
▁भले	-3243
▁मस्	-3244
▁मां	-3245
▁चलने	-3246
▁निर्वाचन	-3247
?”	-3248
ग़	-3249
वण	-3250
फार	-3251
▁गौ	-3252
ज्ञा	-3253
शाली	-3254
▁खुश	-3255
▁निरा	-3256
▁लगती	-3257
▁लाया	-3258
▁विजय	-3259
▁शर्त	-3260
▁सागर	-3261
ोग्राम	-3262
▁विभाजन	-3263
▁मस्तिष्क	-3264
पट	-3265
ंगल	-3266
iver	-3267
▁उपा	-3268
▁हमे	-3269
▁उल्ल	-3270
▁पड़ी	-3271
▁ग्रीन	-3272
▁थोड़ा	-3273
▁वर्षा	-3274
▁गतिविध	-3275
▁बुद्धि	-3276
▁उन्होने	-3277
▁प्रदर्श	-3278
जू	-3279
पत	-3280
तीत	-3281
थित	-3282
▁to	-3283
ंधान	-3284
▁अना	-3285
▁टिप	-3286
▁दाँ	-3287
▁महल	-3288
▁सिव	-3289
▁१९८	-3290
▁पैसा	-3291
क्साइड	-3292
▁प्रौद्योगिकी	-3293
चय	-3294
ंटी	-3295
जोर	-3296
▁नमूने	-3297
▁किनारे	-3298
▁कार्यपालिका	-3299
▁अर्थव्यवस्था	-3300
व्र	-3301
▁आइ	-3302
▁गूगल	-3303
हिन्दी	-3304
▁उपचार	-3305
रूद्दीन	-3306
ासा	-3307
▁24	-3308
▁फैल	-3309
▁मंज	-3310
▁सजा	-3311
▁उम्म	-3312
▁खड़े	-3313
▁हालत	-3314
श्लेषण	-3315
ch	-3316
आइ	-3317
▁e	-3318
ंदन	-3319
न्स	-3320
ांक	-3321
परिक	-3322
वाना	-3323
्वीप	-3324
्षिक	-3325
▁भेद	-3326
ताबिक	-3327
▁प्ले	-3328
▁40	-3329
व्या	-3330
ष्टा	-3331
ाजपा	-3332
ियोग	-3333
▁नती	-3334
▁मूर्	-3335
▁बच्चा	-3336
▁महादेवी	-3337
▁मुताबिक	-3338
जु	-3339
▁L	-3340
नाश	-3341
▁लें	-3342
▁कहाँ	-3343
▁बनवा	-3344
▁मस्ज	-3345
▁संकट	-3346
▁कमजोर	-3347
▁कराने	-3348
▁व्यक़्त	-3349
▁भारतीयों	-3350
टि	-3351
थि	-3352
राण	-3353
▁छत	-3354
पश्च	-3355
स्टर	-3356
▁डॉलर	-3357
▁सालों	-3358
▁आतंकवादी	-3359
▁९	-3360
्सा	-3361
▁एड	-3362
पेयी	-3363
▁आंख	-3364
▁लिप	-3365
त्त्व	-3366
▁जिले	-3367
▁अगस्त	-3368
▁देंगे	-3369
▁फ्रां	-3370
▁वस्तु	-3371
▁सिविल	-3372
▁वार्षिक	-3373
वत	-3374
पंथ	-3375
मेह	-3376
शनल	-3377
्रोह	-3378
▁फंच	-3379
▁सका	-3380
▁बजाय	-3381
▁साधन	-3382
▁स्वर	-3383
▁जीवित	-3384
▁आक्रमण	-3385
▁अनुसंधान	-3386
▁लोकतंत्र	-3387
▁नियंत्रित	-3388
गण	-3389
कता	-3390
द्धा	-3391
मंडल	-3392
▁उर्	-3393
▁कोऋ	-3394
▁दैनिक	-3395
वैधानिक	-3396
▁अभियान	-3397
▁मुद्रा	-3398
▁पट	-3399
्राट	-3400
▁दवा	-3401
▁लौट	-3402
▁सहज	-3403
▁गीता	-3404
▁मॉडल	-3405
▁गर्मी	-3406
▁वीडियो	-3407
▁वाजपेयी	-3408
▁..	-3409
पक्ष	-3410
ोबार	-3411
▁पति	-3412
▁रोज	-3413
▁सुझ	-3414
चारिक	-3415
▁नाटक	-3416
▁योनि	-3417
▁समर्	-3418
▁घरेलू	-3419
▁विवरण	-3420
▁अत्यंत	-3421
▁कार्यों	-3422
▁स्वीकृति	-3423
▁बदरूद्दीन	-3424
्यु	-3425
▁अय	-3426
▁दिस	-3427
▁फूल	-3428
▁भगत	-3429
▁अभिव	-3430
▁विधाय	-3431
▁बुनियादी	-3432
णों	-3433
थुन	-3434
क्का	-3435
सल्ल	-3436
▁गुट	-3437
▁१९७	-3438
त्कार	-3439
फारिश	-3440
▁आकाश	-3441
▁सांस	-3442
▁सहारा	-3443
▁आयोजित	-3444
▁छोड़कर	-3445
▁शक़्ति	-3446
▁परीक्षण	-3447
un	-3448
गि	-3449
दृ	-3450
▁सृ	-3451
निर्	-3452
▁100	-3453
▁अंश	-3454
▁गईं	-3455
▁अल्प	-3456
▁कहता	-3457
▁दबाव	-3458
▁रखता	-3459
▁लंबी	-3460
▁लंबे	-3461
▁वार्म	-3462
▁अंग्रेज	-3463
▁वार्मिंग	-3464
फो	-3465
बान	-3466
प्रे	-3467
▁निच	-3468
▁साइ	-3469
▁दीर्	-3470
▁सुनि	-3471
▁आवेदन	-3472
▁आसानी	-3473
▁देवता	-3474
▁प्रथा	-3475
▁सैनिक	-3476
▁आलोचना	-3477
▁निरंतर	-3478
▁फ़िल्म	-3479
▁मधुमेह	-3480
▁समाधान	-3481
ानिस्तान	-3482
▁सिफारिश	-3483
▁विशेषज्ञ	-3484
▁क्रांतिकारी	-3485
ैव	-3486
ोह	-3487
मैं	-3488
▁अश	-3489
▁पल	-3490
▁मू	-3491
क्षम	-3492
िताभ	-3493
▁190	-3494
▁आपस	-3495
▁बढे	-3496
▁मिशन	-3497
▁अभिने	-3498
▁क्षति	-3499
▁पीढ़ी	-3500
▁बढ़ती	-3501
▁समस्त	-3502
▁अंतरिक्ष	-3503
▁प्रतिनिधित्व	-3504
ऋर	-3505
एल	-3506
गो	-3507
रद	-3508
वधान	-3509
श्रे	-3510
▁काग	-3511
▁खबर	-3512
▁खतरा	-3513
▁लंबा	-3514
▁कठिना	-3515
▁संचाल	-3516
▁हत्या	-3517
▁उपयोगी	-3518
▁तुम्हें	-3519
न्व	-3520
फ़ी	-3521
▁26	-3522
मार्	-3523
▁खुल	-3524
▁ताल	-3525
नागरी	-3526
▁जुड़	-3527
▁दूरी	-3528
▁दृश्य	-3529
▁मालिक	-3530
▁स्वामी	-3531
▁महात्मा	-3532
um	-3533
घु	-3534
शे	-3535
ॉन	-3536
▁/	-3537
ताव	-3538
र्जी	-3539
लिंग	-3540
▁अंक	-3541
▁कड़	-3542
▁खूब	-3543
▁ग्रहण	-3544
▁भाजपा	-3545
▁कार्बन	-3546
▁ग्रन्थ	-3547
▁निर्मा	-3548
▁श्रृंखला	-3549
छा	-3550
ढे	-3551
▁!	-3552
▁यौ	-3553
बारा	-3554
▁एका	-3555
▁चली	-3556
▁एकदम	-3557
▁कहने	-3558
▁जानी	-3559
▁ट्रे	-3560
▁स्थायी	-3561
▁सूक्ष्म	-3562
▁प्रतिबंध	-3563
▁परिस्थितियों	-3564
ul	-3565
मर	-3566
।”	-3567
▁i	-3568
ेलन	-3569
▁मछ	-3570
शाला	-3571
स्थल	-3572
▁जैन	-3573
▁दाय	-3574
▁बजट	-3575
▁भरी	-3576
ेदारी	-3577
▁आवाज	-3578
▁चिंता	-3579
▁शुद्ध	-3580
▁गुजरात	-3581
▁कोशिकाओं	-3582
जनन	-3583
▁hO	-3584
▁कू	-3585
▁२०	-3586
▁जला	-3587
▁फें	-3588
▁बहस	-3589
▁अनुप	-3590
▁खाने	-3591
▁खींच	-3592
▁बीमार	-3593
▁रोकने	-3594
तालियाँ	-3595
▁सम्राट	-3596
▁मान्यता	-3597
▁वित्तीय	-3598
▁मंत्रालय	-3599
ारक	-3600
▁एज	-3601
▁चू	-3602
▁मस	-3603
▁हज	-3604
ंगों	-3605
▁अफ़	-3606
▁गोल	-3607
▁ध्व	-3608
▁सुल	-3609
कीर्ण	-3610
▁गुरु	-3611
▁ढांच	-3612
▁शारी	-3613
▁लड़ाई	-3614
▁अर्जुन	-3615
▁मुकदमे	-3616
▁सिर्फ़	-3617
किंग	-3618
चारी	-3619
ूँगा	-3620
▁अंध	-3621
▁वकी	-3622
▁बैंक	-3623
▁रोगी	-3624
▁कितने	-3625
▁रहस्य	-3626
▁वाद्य	-3627
▁उत्साह	-3628
▁मस्जिद	-3629
▁आनुवंशिक	-3630
▁संवैधानिक	-3631
▁सुनिश्चित	-3632
कऋ	-3633
▁r	-3634
खों	-3635
यें	-3636
ियार	-3637
्रीम	-3638
▁झील	-3639
भाविक	-3640
▁जहाज	-3641
▁धातु	-3642
▁गाँधी	-3643
▁मिश्र	-3644
▁अमिताभ	-3645
▁परिभाषा	-3646
▁प्रारंभिक	-3647
▁R	-3648
▁ं	-3649
भेद	-3650
िश्त	-3651
▁अतः	-3652
▁अम्	-3653
▁आंत	-3654
▁मकब	-3655
▁मरा	-3656
▁सुब	-3657
दूसरे	-3658
▁ग्लो	-3659
▁रक़्त	-3660
▁लिखित	-3661
▁महाराष्ट्र	-3662
-7	-3663
ँचे	-3664
नाक	-3665
ाले	-3666
ेंड	-3667
▁१२	-3668
लिया	-3669
▁पशु	-3670
ग्राम	-3671
चार्य	-3672
हाबाद	-3673
▁आजाद	-3674
▁लगते	-3675
▁प्यार	-3676
▁दिखाया	-3677
▁प्रांत	-3678
▁प्रभावी	-3679
▁वस्तुओं	-3680
ज़्	-3681
हिर	-3682
▁बू	-3683
▁☻☻	-3684
बादी	-3685
भूति	-3686
्रों	-3687
▁घुट	-3688
▁भूल	-3689
▁खराब	-3690
▁संसा	-3691
▁देखकर	-3692
▁देखना	-3693
▁मुल्क	-3694
▁शहरों	-3695
▁समझते	-3696
▁अप्रैल	-3697
▁प्रतिदिन	-3698
em	-3699
िकल	-3700
▁कट	-3701
सिंह	-3702
▁शोर	-3703
शीलता	-3704
▁डाला	-3705
▁प्रोट	-3706
▁बताते	-3707
▁सक्षम	-3708
▁महीनों	-3709
▁प्रयत्न	-3710
▁शारीरिक	-3711
तो	-3712
देह	-3713
▁अधि	-3714
▁चोट	-3715
▁कम्प	-3716
▁देकर	-3717
▁महिल	-3718
▁वक्त	-3719
▁एकत्र	-3720
▁बनाते	-3721
▁मुक्त	-3722
▁कलाकार	-3723
▁ग्रामी	-3724
▁यूरोपीय	-3725
ाज़	-3726
▁कऋ	-3727
काने	-3728
वाले	-3729
▁चढ़	-3730
▁जून	-3731
▁फाय	-3732
▁लेट	-3733
▁सुख	-3734
▁नृत्य	-3735
▁अनुरूप	-3736
▁प्रतीक	-3737
▁विशेषकर	-3738
▁इन्होंने	-3739
वश	-3740
द्र	-3741
साथ	-3742
क़्ट	-3743
▁खतर	-3744
युद्ध	-3745
▁फ़ोन	-3746
▁फरवरी	-3747
▁इसलिये	-3748
▁नियुक्त	-3749
▁फिल्मों	-3750
-2	-3751
श्त	-3752
ुरत	-3753
लैंड	-3754
वेयर	-3755
ोधित	-3756
▁अर्ध	-3757
▁असफल	-3758
▁दिला	-3759
▁परिस	-3760
▁जानता	-3761
▁नौकरी	-3762
▁फैसला	-3763
▁विशेषता	-3764
▁राज्यपाल	-3765
▁बल्लेबाजी	-3766
ुआ	-3767
ण्ट	-3768
परी	-3769
घटना	-3770
▁काट	-3771
▁किलो	-3772
▁बैठक	-3773
▁जाएगी	-3774
▁अभिव्य	-3775
▁किराये	-3776
ैक	-3777
▁D	-3778
कला	-3779
▁पथ	-3780
्राइ	-3781
▁घूम	-3782
▁दिलच	-3783
▁निगम	-3784
▁मानी	-3785
▁सहमत	-3786
▁जिसमे	-3787
▁प्रतिभा	-3788
▁तुम्हारे	-3789
ce	-3790
जित	-3791
वां	-3792
▁तहत	-3793
▁मिस	-3794
▁खिलफ	-3795
▁गद्य	-3796
▁जीवा	-3797
▁कीटों	-3798
▁संघीय	-3799
▁समज्ह	-3800
▁मुकाबले	-3801
▁चिकित्सा	-3802
िरी	-3803
▁3.	-3804
जूदा	-3805
स्ती	-3806
▁दान	-3807
▁हल्	-3808
▁उन्न	-3809
▁खड़ा	-3810
▁ग्री	-3811
▁उर्दू	-3812
▁तीव्र	-3813
▁क़ुरआन	-3814
▁व्यवसाय	-3815
▁हिन्दुओं	-3816
▁मंत्रिपरि	-3817
दल	-3818
▁G	-3819
▁N	-3820
गाह	-3821
भूम	-3822
लोड	-3823
सीय	-3824
ासी	-3825
्वा	-3826
▁ko	-3827
▁रण	-3828
▁उदय	-3829
▁उमी	-3830
▁गौर	-3831
▁टुक	-3832
▁नोट	-3833
▁बोस	-3834
कृष्ट	-3835
▁आर्य	-3836
▁ईसाई	-3837
▁गिरा	-3838
▁बांध	-3839
▁जवाहर	-3840
▁जिनकी	-3841
▁रेडियो	-3842
▁स्वस्थ	-3843
▁दुर्घटना	-3844
▁देवनागरी	-3845
ya	-3846
मेल	-3847
▁१०	-3848
▁१६	-3849
काता	-3850
गतान	-3851
▁पंख	-3852
▁पैर	-3853
▁रुचि	-3854
▁लोगो	-3855
▁हाथी	-3856
▁करेगी	-3857
▁निष्क	-3858
▁आरंभिक	-3859
▁ग्लोबल	-3860
▁विकल्प	-3861
▁स्वागत	-3862
जल	-3863
पण	-3864
फ्ट	-3865
रोध	-3866
स्फ	-3867
▁लै	-3868
िकोड	-3869
▁कमा	-3870
▁कैं	-3871
▁हाँ	-3872
▁इंग़	-3873
▁चुने	-3874
▁ज्ञात	-3875
▁वैश्व	-3876
▁श्रेष्ठ	-3877
अलग	-3878
▁बम	-3879
▁भत	-3880
भूमि	-3881
▁इंज	-3882
▁गोप	-3883
▁हिस	-3884
लिखित	-3885
िशाली	-3886
▁उतना	-3887
▁मौका	-3888
▁रहें	-3889
▁सड़क	-3890
▁कीजिए	-3891
▁पुनर्	-3892
▁प्रजनन	-3893
▁गतिविधियों	-3894
डर	-3895
र्तन	-3896
वर्क	-3897
▁तरा	-3898
▁नवं	-3899
▁ब्ल	-3900
▁छाया	-3901
▁जानने	-3902
▁निवास	-3903
▁वक़्त	-3904
▁सोचते	-3905
▁विधायिका	-3906
▁स्वाभाविक	-3907
ीद	-3908
ॉट	-3909
ंजन	-3910
करा	-3911
▁हट	-3912
▁ज्ह	-3913
▁पहन	-3914
▁पहल	-3915
▁उद्य	-3916
▁उमीद	-3917
▁कुशल	-3918
▁जाँच	-3919
▁तोड़	-3920
▁व्यय	-3921
▁थोड़ी	-3922
▁धारणा	-3923
▁निदेश	-3924
▁हस्ता	-3925
▁विद्यार्थ	-3926
▁अफगानिस्तान	-3927
ंर	-3928
तृ	-3929
ेह	-3930
ट्र	-3931
ैया	-3932
ड़ित	-3933
▁कहे	-3934
▁ड्र	-3935
▁बिता	-3936
▁मांस	-3937
▁जीवों	-3938
▁जुड़े	-3939
▁बनायी	-3940
▁मजदूर	-3941
▁अमरीका	-3942
▁उत्तरा	-3943
▁आकर्षित	-3944
▁द्वीपों	-3945
▁विश्लेषण	-3946
50	-3947
वक	-3948
कूल	-3949
नीति	-3950
▁ऊंट	-3951
▁तिर	-3952
राज्य	-3953
▁माने	-3954
▁जायें	-3955
▁तीसरे	-3956
▁पत्रिका	-3957
ag	-3958
ig	-3959
थे	-3960
शऋ	-3961
हम	-3962
ेड	-3963
गढ़	-3964
सास	-3965
▁जू	-3966
▁झु	-3967
▁भरत	-3968
▁समृ	-3969
ृत्ति	-3970
▁टीवी	-3971
▁बदले	-3972
▁बुरा	-3973
▁जुलाई	-3974
▁निहित	-3975
▁सेक्स	-3976
▁स्थिर	-3977
क्षेत्र	-3978
▁परिवहन	-3979
▁मौजूदा	-3980
▁अधिवेशन	-3981
▁कोलकाता	-3982
▁श्लोकों	-3983
▁सरकारों	-3984
िड	-3985
्मी	-3986
▁60	-3987
▁हद	-3988
ंसिल	-3989
चिका	-3990
म्बे	-3991
▁सदा	-3992
णियों	-3993
▁मक़्	-3994
▁मामल	-3995
▁जितनी	-3996
▁नवंबर	-3997
▁सूरदास	-3998
▁कर्तव्य	-3999
▁ग्रामीण	-4000
▁विद्वान	-4001
जै	-4002
ate	-4003
बोट	-4004
▁उतर	-4005
ुकसान	-4006
▁तीसरा	-4007
▁पात्र	-4008
▁पौधों	-4009
▁भौतिक	-4010
▁शिश्न	-4011
▁संचार	-4012
▁तकनीकी	-4013
▁पहुंचा	-4014
▁सितंबर	-4015
▁महत्त्व	-4016
▁स्वाधीन	-4017
▁निष्कर्ष	-4018
▁अधिकारिता	-4019
se	-4020
आर	-4021
ंजा	-4022
मूल	-4023
▁आँ	-4024
▁आल	-4025
▁पत	-4026
र्या	-4027
ामर्श	-4028
▁कृति	-4029
▁गहरी	-4030
▁पूछा	-4031
▁प्रस	-4032
▁अकेले	-4033
▁कुमार	-4034
▁गुप्त	-4035
▁यंत्र	-4036
▁वर्गी	-4037
बो	-4038
कीन	-4039
▁जोख	-4040
▁फौज	-4041
▁अभाव	-4042
▁करोड़े	-4043
▁दूसरों	-4044
▁प्रसाद	-4045
▁भुगतान	-4046
▁मिलाकर	-4047
▁समर्पित	-4048
▁प्रदर्शित	-4049
▁21	-4050
▁कच	-4051
क्षर	-4052
ूद्ध	-4053
▁असम	-4054
▁कर्	-4055
▁काउ	-4056
▁प्ल	-4057
श्नों	-4058
▁इसील	-4059
▁पत्त	-4060
▁बनाम	-4061
▁सफेद	-4062
▁जाहिर	-4063
▁लिखने	-4064
▁कारणों	-4065
▁विद्रोह	-4066
▁सम्बन्ध	-4067
▁कंपनियों	-4068
▁अंग्रेज़ी	-4069
म्स	-4070
स्को	-4071
स्पर	-4072
▁जूट	-4073
▁फसल	-4074
ार्ता	-4075
▁घरों	-4076
▁देखे	-4077
▁बेहद	-4078
▁मन्त	-4079
▁रहीं	-4080
▁सीधा	-4081
ंत्रिक	-4082
▁ग्राम	-4083
▁अधिकरण	-4084
▁अल्लाह	-4085
▁ज़रूरत	-4086
▁तरीकों	-4087
▁नुकसान	-4088
▁स्वर्ग	-4089
▁जातियों	-4090
▁इलाहाबाद	-4091
▁संक्षिप्त	-4092
पो	-4093
केट	-4094
चरण	-4095
▁th	-4096
▁मल	-4097
▁नेट	-4098
▁सोव	-4099
▁आराम	-4100
▁क्यू	-4101
▁सीता	-4102
▁चंद्र	-4103
▁दरबार	-4104
▁सुझाव	-4105
▁उम्मीद	-4106
▁जिंदगी	-4107
▁शिक्षक	-4108
▁क्षेत्रीय	-4109
ठे	-4110
घ्र	-4111
ब्र	-4112
▁वऋ	-4113
साइट	-4114
िवेश	-4115
▁ऋषि	-4116
▁कही	-4117
▁किले	-4118
▁दरवा	-4119
▁देगा	-4120
▁मानक	-4121
▁लंदन	-4122
▁शासक	-4123
▁शाहज	-4124
▁अभियु	-4125
▁गाड़ी	-4126
▁ग्राह	-4127
▁चेहरे	-4128
▁आंतरिक	-4129
▁घटनाओं	-4130
▁प्रतीत	-4131
▁बिलकुल	-4132
▁महिलाओं	-4133
▁विरूद्ध	-4134
▁संग्रहालय	-4135
▁परिणामस्वरूप	-4136
ow	-4137
दन	-4138
दो	-4139
▁ष	-4140
▁23	-4141
▁लु	-4142
मुना	-4143
▁करो	-4144
क्षेप	-4145
▁चट्ट	-4146
▁नज़र	-4147
▁यानी	-4148
▁वकील	-4149
▁शहरी	-4150
▁बताने	-4151
▁मराठी	-4152
चारियों	-4153
▁अनुपात	-4154
▁दिसंबर	-4155
▁परामर्श	-4156
▁उत्कृष्ट	-4157
▁सर्वश्रे	-4158
▁इंग़्लैंड	-4159
▁प्रतिनिधि	-4160
मै	-4161
ूष	-4162
५०	-4163
नतम	-4164
ियल	-4165
▁22	-4166
पिता	-4167
▁आना	-4168
▁तिल	-4169
▁राह	-4170
▁खड़ी	-4171
▁शादी	-4172
▁साइट	-4173
▁अन्दर	-4174
▁आबादी	-4175
▁तीर्थ	-4176
▁रिश्त	-4177
▁सामूह	-4178
▁हिसाब	-4179
▁उत्तेज	-4180
▁असाधारण	-4181
▁प्रश्नों	-4182
▁श्रीकृष्ण	-4183
▁सांप्रदाय	-4184
ँग	-4185
सीसी	-4186
▁आमद	-4187
▁वित	-4188
▁कच्च	-4189
▁जनरल	-4190
▁सिखा	-4191
▁अनुया	-4192
▁भक्ति	-4193
▁पर्यटन	-4194
▁पैमाने	-4195
▁शीर्षक	-4196
▁सच्चाई	-4197
▁संस्थाओं	-4198
वह	-4199
ॉम	-4200
ंभव	-4201
▁अऑ	-4202
▁धो	-4203
पंथी	-4204
▁वैध	-4205
▁उतनी	-4206
▁यहीं	-4207
स्ट्रे	-4208
▁अन्तर	-4209
▁खाद्य	-4210
▁पढ़ने	-4211
▁रोबोट	-4212
▁संतुल	-4213
▁अनुकूल	-4214
▁इंडियन	-4215
▁दीवारों	-4216
रु	-4217
है	-4218
सागर	-4219
ार्क	-4220
▁कब्	-4221
▁किल	-4222
▁छुट	-4223
▁छोड	-4224
▁परे	-4225
ंपरिक	-4226
ोध्या	-4227
▁कमरे	-4228
▁बांग	-4229
▁सिवा	-4230
▁टेस्ट	-4231
▁निश्च	-4232
▁पड़ती	-4233
▁बनाकर	-4234
▁मुझसे	-4235
▁मैथुन	-4236
▁रूपये	-4237
▁कहलाता	-4238
▁मिट्टी	-4239
▁प्रजाति	-4240
▁सामूहिक	-4241
स्ट्रेलिया	-4242
▁सर्वश्रेष्ठ	-4243
ap	-4244
▁H	-4245
ण्य	-4246
पों	-4247
बूर	-4248
▁उभ	-4249
तायात	-4250
ोक्ता	-4251
▁कराया	-4252
▁जोखिम	-4253
▁शुल्क	-4254
▁तत्वों	-4255
▁श्रमिक	-4256
▁संकल्प	-4257
▁कर्मचारी	-4258
▁निम्नलिखित	-4259
जब	-4260
ट्	-4261
ंकर	-4262
गैर	-4263
षद्	-4264
हाई	-4265
▁it	-4266
▁यथ	-4267
कारा	-4268
र्धा	-4269
र्मर	-4270
्रास	-4271
▁बीस	-4272
▁भवन	-4273
▁समी	-4274
▁गवर्	-4275
▁कॉलेज	-4276
▁तीसरी	-4277
▁वर्मा	-4278
कारात्मक	-4279
▁जानवरों	-4280
▁प्राथमिक	-4281
▁प्रत्यक्ष	-4282
▁मुयमंत्री	-4283
कां	-4284
ापन	-4285
वाणी	-4286
▁लघु	-4287
▁सोन	-4288
▁कहती	-4289
▁जरूर	-4290
▁चीजों	-4291
▁छोड़े	-4292
▁टिप्प	-4293
▁अपनाया	-4294
▁कड़ियाँ	-4295
▁यातायात	-4296
▁हिंदुओं	-4297
▁व्याख्या	-4298
ab	-4299
अप	-4300
सो	-4301
र्ती	-4302
▁छूट	-4303
▁दास	-4304
▁बड़	-4305
▁शान	-4306
▁सद्	-4307
गाकार	-4308
▁अरबी	-4309
▁बचपन	-4310
▁शिशु	-4311
▁कोयले	-4312
▁गरीबी	-4313
▁मतभेद	-4314
▁सूत्र	-4315
▁सुनवाई	-4316
▁अस्पताल	-4317
▁प्रारूप	-4318
▁विभाजित	-4319
▁नागरिकों	-4320
▁प्रशासनिक	-4321
नल	-4322
पद	-4323
ुलकर	-4324
▁भरा	-4325
स्करण	-4326
▁जाएं	-4327
▁पांव	-4328
▁महार	-4329
▁मादा	-4330
▁आध्या	-4331
▁आमदनी	-4332
▁दीर्घ	-4333
▁मध्यम	-4334
▁लकड़ी	-4335
▁नदियों	-4336
▁मानसिक	-4337
▁वर्णित	-4338
▁संगमर्मर	-4339
▁कर्मचारियों	-4340
tr	-4341
मय	-4342
▁U	-4343
बाई	-4344
शेष	-4345
▁औप	-4346
▁नु	-4347
पादन	-4348
वादन	-4349
▁गयीं	-4350
▁भ्रम	-4351
▁रावण	-4352
▁उठाने	-4353
▁परिचय	-4354
▁मामला	-4355
▁देवताओं	-4356
▁न्यूनतम	-4357
▁सम्मेलन	-4358
▁प्राप्ति	-4359
▁सिद्धांतों	-4360
.2	-4361
th	-4362
लक	-4363
नाम	-4364
▁छि	-4365
▁शौ	-4366
हारी	-4367
▁आधे	-4368
▁उभर	-4369
▁खून	-4370
▁इलाज	-4371
▁उतार	-4372
▁उद्ध	-4373
▁जागर	-4374
▁नंबर	-4375
▁पृथक	-4376
▁मारे	-4377
▁शत्र	-4378
▁सचिव	-4379
▁सुबह	-4380
▁२००८	-4381
▁रूपों	-4382
▁वेदों	-4383
▁संदेह	-4384
▁अमरीकी	-4385
▁इसीलिए	-4386
▁हजारों	-4387
▁अयोध्या	-4388
▁वैश्विक	-4389
रणा	-4390
ुति	-4391
▁CO	-4392
▁अनि	-4393
▁परा	-4394
▁बडा	-4395
▁वजन	-4396
तियोग	-4397
▁अगली	-4398
▁उसको	-4399
▁कर्ण	-4400
▁गहरे	-4401
▁चेतना	-4402
▁दर्शा	-4403
▁नेशनल	-4404
▁पिछली	-4405
▁मालूम	-4406
▁रियास	-4407
▁अध्याय	-4408
▁विषयों	-4409
▁संपन्न	-4410
▁पारंपरिक	-4411
▁मंत्रिपरिषद	-4412
डि	-4413
रम	-4414
ुण	-4415
▁>	-4416
्यौ	-4417
▁पड	-4418
▁काब	-4419
▁माइ	-4420
▁तमाम	-4421
▁बचाव	-4422
▁भेजे	-4423
▁राशि	-4424
्रियों	-4425
▁इमारत	-4426
▁तीनों	-4427
▁बताना	-4428
▁फ्रांस	-4429
▁वास्तु	-4430
▁अभिनेता	-4431
▁प्रार्थ	-4432
▁कार्यालय	-4433
▁पदार्थों	-4434
▁वर्गाकार	-4435
▁न्यायपालिका	-4436
मुच	-4437
रेट	-4438
▁Aa	-4439
▁ठा	-4440
▁लॉ	-4441
क्षी	-4442
▁भरे	-4443
▁सें	-4444
ख़्या	-4445
▁कट्ट	-4446
▁बैठे	-4447
▁साथी	-4448
स्थायी	-4449
▁जिनसे	-4450
▁अभियोग	-4451
▁परेशान	-4452
▁समानता	-4453
▁शास्त्र	-4454
▁नियुक्ति	-4455
डिय	-4456
थान	-4457
ुरी	-4458
ृंग	-4459
▁इक	-4460
न्ना	-4461
हाउस	-4462
▁उपन	-4463
▁एंड	-4464
▁१९३	-4465
▁आश्व	-4466
▁काले	-4467
▁घाटी	-4468
▁हुये	-4469
▁सहयोगी	-4470
▁सीमाओं	-4471
▁विविधता	-4472
▁आध्यात्म	-4473
ah	-4474
झा	-4475
रत	-4476
ana	-4477
लीन	-4478
ायल	-4479
▁छो	-4480
रानी	-4481
र्तग	-4482
ानिक	-4483
▁उनऋ	-4484
▁चाय	-4485
▁ठोस	-4486
▁किमी	-4487
▁खाते	-4488
▁पुनः	-4489
▁लागत	-4490
▁दस्ता	-4491
▁शिल्प	-4492
▁शीघ्र	-4493
▁अनुप्र	-4494
▁देखिये	-4495
▁परीक्षा	-4496
▁विद्युत	-4497
▁संग्राम	-4498
▁किलोमीटर	-4499
▁प्रतियोग	-4500
▁प्रावधान	-4501
30	-4502
pl	-4503
ंडा	-4504
ेटी	-4505
▁भय	-4506
्याण	-4507
▁अजी	-4508
▁दुख	-4509
धारणा	-4510
▁आपसे	-4511
▁क्री	-4512
▁बांट	-4513
क्तूबर	-4514
▁अवश्य	-4515
▁जानना	-4516
▁जुड़ी	-4517
▁पार्ट	-4518
▁स्मृति	-4519
og	-4520
नन	-4521
यू	-4522
लन	-4523
टों	-4524
बों	-4525
ंचित	-4526
ेंसी	-4527
▁चैन	-4528
▁मौत	-4529
▁अब्द	-4530
▁ऊँचा	-4531
▁ऊपरी	-4532
▁खतरे	-4533
▁नवीन	-4534
▁सदैव	-4535
▁हमला	-4536
▁गुणसू	-4537
▁रहेगा	-4538
▁सिन्ध	-4539
राष्ट्र	-4540
▁पुराना	-4541
▁समूहों	-4542
▁विद्वानों	-4543
▁इट	-4544
tion	-4545
▁अंद	-4546
▁छोर	-4547
▁भूख	-4548
लेकिन	-4549
▁कारा	-4550
▁चिंत	-4551
▁दार्	-4552
▁पाये	-4553
रीक्षण	-4554
▁काफ़ी	-4555
▁सचमुच	-4556
कर्ताओं	-4557
धिकारिक	-4558
▁गिरफ्त	-4559
▁संचालन	-4560
▁हिन्दु	-4561
▁राज्यसभा	-4562
▁विद्यमान	-4563
-8	-4564
पया	-4565
ुरा	-4566
ोसा	-4567
▁जज	-4568
ment	-4569
फ़्त	-4570
वाला	-4571
ार्ट	-4572
▁बजे	-4573
▁लाह	-4574
▁कपड़े	-4575
▁किसान	-4576
▁जानवर	-4577
▁पर्वत	-4578
▁बोर्ड	-4579
▁सदनों	-4580
▁समझौते	-4581
▁सामान्यत	-4582
▁प्रार्थना	-4583
पल	-4584
िब	-4585
ick	-4586
ide	-4587
लेट	-4588
▁is	-4589
▁इज	-4590
▁चो	-4591
दायक	-4592
विधि	-4593
▁इंत	-4594
▁थोड	-4595
▁मसल	-4596
▁मृत	-4597
▁वास	-4598
हादुर	-4599
▁आपात	-4600
▁तालि	-4601
▁फेंक	-4602
▁बयान	-4603
▁ब्रा	-4604
▁क्रमश	-4605
▁अनुदान	-4606
▁परिवेश	-4607
▁पुर्तग	-4608
▁उपकरणों	-4609
▁अध्यक्षता	-4610
▁ग्रीनहाउस	-4611
झे	-4612
लभ	-4613
ितल	-4614
पानी	-4615
वाली	-4616
▁फिल	-4617
▁फ्ल	-4618
▁सुप	-4619
▁उदार	-4620
▁ऊंचे	-4621
▁गणना	-4622
▁बारह	-4623
▁भेंट	-4624
▁गहराई	-4625
▁जोड़े	-4626
▁डॉक्टर	-4627
▁पीड़ित	-4628
▁अवधारणा	-4629
▁टेलीफोन	-4630
▁परेशानी	-4631
▁संपत्ति	-4632
▁जवाहरलाल	-4633
घर	-4634
▁]	-4635
▁सॉ	-4636
वारी	-4637
ायिक	-4638
्यूट	-4639
▁खली	-4640
▁माय	-4641
कियों	-4642
▁चक्र	-4643
▁सौंप	-4644
▁हफ्त	-4645
▁चलाया	-4646
▁छात्र	-4647
▁मजबूर	-4648
▁मतदान	-4649
▁मुज्ह	-4650
▁चरित्र	-4651
▁डाक्टर	-4652
▁परस्पर	-4653
▁प्रेरणा	-4654
▁भावनाओं	-4655
▁व्यावसाय	-4656
▁स्वाधीनता	-4657
.1	-4658
ंकन	-4659
डऋई	-4660
मेर	-4661
्नि	-4662
▁चै	-4663
▁हॉ	-4664
ज़रत	-4665
र्ड़	-4666
▁185	-4667
▁कंध	-4668
▁गीत	-4669
▁टूट	-4670
▁दुर	-4671
▁वीर	-4672
स्त्र	-4673
▁अलवा	-4674
▁अष्ट	-4675
▁एक्स	-4676
▁गर्भ	-4677
▁टकरा	-4678
▁पाता	-4679
▁साहस	-4680
▁आवाज़	-4681
▁इत्या	-4682
▁जमाने	-4683
▁सुनने	-4684
▁बनवाया	-4685
▁बादशाह	-4686
▁मुद्दे	-4687
▁वस्त्र	-4688
▁अक्तूबर	-4689
▁गाँधीजी	-4690
▁27	-4691
▁35	-4692
▁सेन	-4693
▁हरा	-4694
नलाइन	-4695
पेक्ष	-4696
▁कायम	-4697
▁गाँव	-4698
▁बुरी	-4699
▁मोड़	-4700
▁☻☻☻☻	-4701
▁थोड़े	-4702
▁दोहरा	-4703
▁निभाई	-4704
▁प्रभु	-4705
▁प्रवाह	-4706
▁लक्ष्मण	-4707
▁संबंधों	-4708
▁आधिकारिक	-4709
▁परिवर्तित	-4710
▁वैज्ञानिकों	-4711
av	-4712
जात	-4713
▁80	-4714
▁ढल	-4715
▁नै	-4716
क़्स	-4717
ड़ें	-4718
त्तम	-4719
▁इरा	-4720
▁औरत	-4721
▁जन्	-4722
▁फीड	-4723
▁मत्	-4724
▁मोह	-4725
▁किला	-4726
▁मुंह	-4727
▁विलय	-4728
▁हाउस	-4729
▁उत्तम	-4730
▁चलाने	-4731
▁चीजें	-4732
▁समझना	-4733
िस्ट्रेट	-4734
▁किसानों	-4735
▁नीतियों	-4736
▁प्रदूषक	-4737
▁समुद्री	-4738
पथ	-4739
्द	-4740
200	-4741
वती	-4742
▁तह	-4743
▁पन	-4744
शासन	-4745
▁अदा	-4746
▁अमर	-4747
▁बिक	-4748
▁संभ	-4749
काव्य	-4750
ष्कार	-4751
▁आहार	-4752
▁दीपा	-4753
▁फोटो	-4754
▁मोटर	-4755
▁हमले	-4756
पश्चिम	-4757
▁कोयला	-4758
▁नतीजा	-4759
▁संभाल	-4760
▁सहमति	-4761
▁सोचता	-4762
▁युक़्त	-4763
▁समझौता	-4764
▁संस्करण	-4765
od	-4766
यव	-4767
सद	-4768
र्र	-4769
▁नज	-4770
▁११	-4771
णुओं	-4772
धर्म	-4773
▁छाप	-4774
▁जुल	-4775
▁नक्	-4776
ड़िया	-4777
▁पहलू	-4778
▁यानि	-4779
▁शेयर	-4780
▁आयोजन	-4781
▁जीनों	-4782
▁बनाती	-4783
▁विनाश	-4784
▁शक़्त	-4785
▁हज़रत	-4786
▁कल्याण	-4787
▁घुटनों	-4788
▁निकलने	-4789
▁संगठित	-4790
▁दीपावली	-4791
▁सम्मानित	-4792
▁जिम्मेदार	-4793
▁व्यावसायिक	-4794
60	-4795
पू	-4796
ोम	-4797
ity	-4798
ड्ड	-4799
▁लल	-4800
जाइन	-4801
र्की	-4802
शनिक	-4803
▁टिक	-4804
▁बेल	-4805
▁लीग	-4806
▁हरे	-4807
▁2000	-4808
पूर्ति	-4809
▁कमेटी	-4810
▁कैंसर	-4811
▁गुम्ब	-4812
▁पोर्ट	-4813
▁बिहार	-4814
वादियों	-4815
▁खतरनाक	-4816
▁ज़रूरी	-4817
▁योग़्य	-4818
▁वार्ता	-4819
▁इत्यादि	-4820
▁जायेंगे	-4821
oc	-4822
all	-4823
कभी	-4824
न्ड	-4825
ेटा	-4826
▁खि	-4827
▁नऋ	-4828
▁पॉ	-4829
ज़ार	-4830
टाने	-4831
▁असह	-4832
▁कूट	-4833
▁नाट	-4834
▁रेश	-4835
▁वाम	-4836
मार्ग	-4837
▁काला	-4838
▁ड्रग	-4839
▁बालक	-4840
▁रखकर	-4841
▁लाइन	-4842
▁उपदेश	-4843
▁निचले	-4844
▁फारसी	-4845
▁बढ़ने	-4846
▁अनुचित	-4847
▁गांवों	-4848
▁पहाड़ी	-4849
▁अर्थात्	-4850
▁सुप्रीम	-4851
▁तत्कालीन	-4852
▁प्रारम्भ	-4853
▁विद्यालय	-4854
▁उत्तरदायी	-4855
▁आध्यात्मिक	-4856
▁परिवर्तनों	-4857
▁प्रोत्साहन	-4858
.5	-4859
ंधन	-4860
पूर	-4861
लोक	-4862
ेरे	-4863
्टर	-4864
▁ऋन	-4865
स्पी	-4866
▁दशा	-4867
▁यूट	-4868
▁रूस	-4869
नुमान	-4870
▁गणित	-4871
▁चालु	-4872
▁बड़ै	-4873
▁यज्ञ	-4874
▁अपमान	-4875
▁ढांचे	-4876
▁फायदा	-4877
▁बढ़कर	-4878
▁युक्त	-4879
▁लगाना	-4880
▁चीज़ों	-4881
▁मुद्दा	-4882
▁यूनिकोड	-4883
▁सांप्रदायिक	-4884
कन	-4885
कश	-4886
ोब	-4887
कोर	-4888
कोश	-4889
िनय	-4890
▁on	-4891
▁अज	-4892
▁वध	-4893
दाता	-4894
िक्र	-4895
▁इकट	-4896
▁निप	-4897
▁सिल	-4898
▁इकाई	-4899
▁इसको	-4900
▁ऊंचा	-4901
▁गुजर	-4902
▁दर्द	-4903
▁बाज़	-4904
▁भागी	-4905
▁यमुना	-4906
▁विज्ञ	-4907
▁निश्चय	-4908
▁तालिबान	-4909
▁पार्श्व	-4910
▁प्रबंधन	-4911
▁दार्शनिक	-4912
▁साहित्यिक	-4913
▁प्रतियोगिता	-4914
▁साम्राज़्यवाद	-4915
)।	-4916
ेत	-4917
ंसक	-4918
ष्प	-4919
ाजा	-4920
▁re	-4921
▁१७	-4922
जैसे	-4923
म्मत	-4924
▁छवि	-4925
▁पिच	-4926
▁वरि	-4927
कर्षण	-4928
▁जबरद	-4929
▁दौड़	-4930
▁धारण	-4931
▁निधि	-4932
▁बाधा	-4933
▁बारी	-4934
▁हानि	-4935
स्थिति	-4936
▁अस्वी	-4937
▁आरम्भ	-4938
▁पुरूष	-4939
▁शत्रु	-4940
▁अधिकतम	-4941
▁उन्हीं	-4942
▁क़ुरान	-4943
▁चीज़ें	-4944
▁याचिका	-4945
▁प्रसन्न	-4946
▁रामलिंग	-4947
▁उपयुक़्त	-4948
▁मनुष्यों	-4949
गन	-4950
ोत	-4951
अभि	-4952
डऋए	-4953
धित	-4954
याल	-4955
▁टि	-4956
खाने	-4957
शाही	-4958
▁for	-4959
▁सल्	-4960
द्वीप	-4961
ष्ठित	-4962
▁इकट्	-4963
▁पारी	-4964
▁बनता	-4965
▁वाकई	-4966
▁समन्व	-4967
▁दुर्भाग	-4968
ex	-4969
ia	-4970
मि	-4971
फ्र	-4972
राय	-4973
षाण	-4974
▁28	-4975
▁29	-4976
▁31	-4977
▁32	-4978
▁90	-4979
▁छू	-4980
इसके	-4981
▁कना	-4982
▁गुल	-4983
▁जगा	-4984
▁तला	-4985
▁दाम	-4986
▁लार	-4987
▁सड़	-4988
क़्ता	-4989
वाहिक	-4990
▁maoM	-4991
▁आचरण	-4992
▁दृढ़	-4993
▁मोटे	-4994
▁यकीन	-4995
▁खलीफा	-4996
▁देखिए	-4997
▁मानता	-4998
▁मानने	-4999
▁जायेगी	-5000
▁निदेशक	-5001
▁प्रशंसा	-5002
▁समाजवादी	-5003
▁सम्पूर्ण	-5004
ep	-5005
ह्न	-5006
िरण	-5007
ुरे	-5008
रांत	-5009
ूंगा	-5010
▁आधा	-5011
▁निश	-5012
▁बहा	-5013
▁रास	-5014
▁साव	-5015
▁हां	-5016
भावित	-5017
▁इंड़	-5018
▁ऊंची	-5019
▁रखें	-5020
▁सोने	-5021
▁परमिट	-5022
▁पूर्ति	-5023
▁मूल्या	-5024
▁दस्तावे	-5025
▁वेबसाइट	-5026
▁समीक्षा	-5027
▁निर्धारण	-5028
▁फलस्वरूप	-5029
op	-5030
us	-5031
ख़	-5032
ौप	-5033
ill	-5034
ंडी	-5035
गुण	-5036
देन	-5037
▁जॉ	-5038
्रेस	-5039
▁चतु	-5040
पत्ति	-5041
प्रथम	-5042
▁1950	-5043
▁ईरान	-5044
▁खेला	-5045
▁दर्ज	-5046
▁दोषी	-5047
▁पढ़ा	-5048
▁पेड़	-5049
▁बाँध	-5050
▁रानी	-5051
▁असंभव	-5052
▁ध्वनि	-5053
▁सर्वे	-5054
ष्टाचार	-5055
▁गुम्बद	-5056
▁यात्री	-5057
▁योजनाओं	-5058
▁हस्ताक्षर	-5059
ढी	-5060
oun	-5061
ंकी	-5062
कुछ	-5063
नाव	-5064
पीठ	-5065
भुत	-5066
▁अट	-5067
▁एव	-5068
▁१३	-5069
क्सी	-5070
ारोह	-5071
▁कमर	-5072
▁घास	-5073
▁ताक	-5074
▁मील	-5075
बिनेट	-5076
श्वास	-5077
▁इटली	-5078
▁बंदर	-5079
▁मुला	-5080
प्रदेश	-5081
▁अनुसू	-5082
▁प्रिय	-5083
▁बाह्य	-5084
▁नदियाँ	-5085
▁वस्तुत	-5086
▁व्यापारी	-5087
▁विचारधारा	-5088
Or	-5089
डु	-5090
▁y	-5091
our	-5092
ारह	-5093
ोहर	-5094
▁In	-5095
किया	-5096
जिये	-5097
्रेड	-5098
▁अवै	-5099
▁उतऋ	-5100
▁पंड	-5101
▁बीत	-5102
▁वचन	-5103
प्रति	-5104
स्फोट	-5105
▁टाइप	-5106
▁तिथि	-5107
▁पल्ल	-5108
▁लगाए	-5109
ढ़ियों	-5110
▁जगहों	-5111
▁भित्त	-5112
▁सकेगा	-5113
ऑक्साइड	-5114
▁सर्विस	-5115
▁आपूर्ति	-5116
▁चमत्कार	-5117
▁शक्तियों	-5118
▁शक्तिशाली	-5119
घात	-5120
शियन	-5121
्याल	-5122
▁आपरा	-5123
▁आवास	-5124
▁उपनि	-5125
▁कागज	-5126
▁बोली	-5127
▁उड़ान	-5128
▁भेजने	-5129
▁राजकु	-5130
▁व्यास	-5131
▁स्टेट	-5132
अभिवादन	-5133
विज्ञान	-5134
▁चालुक़	-5135
▁जाएंगे	-5136
▁दोबारा	-5137
▁निवासी	-5138
▁यूट्यूब	-5139
▁साक्ष्य	-5140
▁कहानियाँ	-5141
फ्	-5142
मक	-5143
ड़स	-5144
ासत	-5145
▁छे	-5146
त्ते	-5147
ायें	-5148
▁नाक	-5149
▁सफ़	-5150
▁१९४	-5151
र्जित	-5152
ष्ठान	-5153
▁अजीब	-5154
▁क्षण	-5155
▁खुशी	-5156
▁टीका	-5157
▁तारी	-5158
▁पाना	-5159
▁प्रि	-5160
▁बांस	-5161
▁शांत	-5162
▁सीधी	-5163
▁२००७	-5164
▁निकले	-5165
▁भांति	-5166
▁मौलिक	-5167
▁वितरण	-5168
▁आमंत्र	-5169
▁जापानी	-5170
▁दिखाने	-5171
▁हनुमान	-5172
▁कैबिनेट	-5173
▁निकोबार	-5174
▁मूल्यों	-5175
▁शाहजहाँ	-5176
▁सामान्यतया	-5177
टो	-5178
ॉक	-5179
वला	-5180
ाजी	-5181
▁मध	-5182
▁हक	-5183
मंडप	-5184
सनीय	-5185
ासीन	-5186
▁अका	-5187
▁चयन	-5188
▁अस्थ	-5189
▁चैनल	-5190
▁फर्क	-5191
▁बेटे	-5192
▁धरोहर	-5193
▁पाषाण	-5194
▁लम्बी	-5195
▁अंतराल	-5196
▁कवियों	-5197
▁पहुँचा	-5198
▁पहुंचे	-5199
▁अस्थायी	-5200
▁उपयुक्त	-5201
▁समितियों	-5202
आई	-5203
ers	-5204
ैंट	-5205
▁कस	-5206
इयां	-5207
धनों	-5208
ूनों	-5209
्यास	-5210
▁बेश	-5211
▁भंड	-5212
पुराण	-5213
▁जाया	-5214
▁नौकर	-5215
▁बर्फ	-5216
▁मुल्	-5217
▁श्वे	-5218
ालियों	-5219
▁फैसले	-5220
▁बताता	-5221
▁संकलन	-5222
▁कारावास	-5223
▁नेटवर्क	-5224
▁पहुंचने	-5225
▁कहानियों	-5226
▁प्रतिस्प	-5227
▁उल्लेखनीय	-5228
▁व्यापारिक	-5229
▁पाकिस्तानी	-5230
▁न्यायाधीशों	-5231
ंदु	-5232
वात	-5233
शनी	-5234
ोटी	-5235
▁छु	-5236
ंगिक	-5237
गंगा	-5238
ैक्त	-5239
▁ढूं	-5240
▁धूल	-5241
▁सैन	-5242
्योति	-5243
▁खाली	-5244
▁गौतम	-5245
▁रखती	-5246
▁लगने	-5247
▁सिंध	-5248
▁इंजीन	-5249
▁काबुल	-5250
▁गैसों	-5251
▁बचाने	-5252
▁उदयपुर	-5253
▁धर्मों	-5254
▁मुज्हो	-5255
▁शानदार	-5256
▁समारोह	-5257
▁आपराधिक	-5258
▁प्रोटीन	-5259
▁सावधानी	-5260
▁उपस्थिति	-5261
▁गेंदबाजी	-5262
▁रियासतों	-5263
▁अनुप्रयोग	-5264
▁मजिस्ट्रेट	-5265
SB	-5266
हो	-5267
१०	-5268
ans	-5269
गोर	-5270
फिर	-5271
श्र	-5272
िज़	-5273
▁ंं	-5274
▁गऋ	-5275
▁वय	-5276
▁शक	-5277
▁हौ	-5278
जीवन	-5279
म्बई	-5280
▁गेट	-5281
▁पोल	-5282
▁फुट	-5283
▁बेस	-5284
त्रिम	-5285
▁फैसल	-5286
▁बताए	-5287
▁भावी	-5288
▁रीति	-5289
▁आखिरी	-5290
▁इंसान	-5291
▁खासकर	-5292
▁प्रया	-5293
▁बॉक्स	-5294
▁वृक्ष	-5295
▁कठिनाई	-5296
▁बढ़ाने	-5297
▁बहादुर	-5298
▁राजाओं	-5299
▁वर्षीय	-5300
ास्त्रीय	-5301
▁नरेंद्र	-5302
▁महासागर	-5303
▁साथियों	-5304
ob	-5305
पृ	-5306
ैस	-5307
ंशी	-5308
्लू	-5309
▁पश	-5310
▁घटक	-5311
▁धूम	-5312
▁१९६	-5313
काण्ड	-5314
तावनी	-5315
िकाओं	-5316
▁अतीत	-5317
▁कैसा	-5318
▁खुली	-5319
▁गुना	-5320
▁डेटा	-5321
▁पट्ट	-5322
▁देखता	-5323
▁परिसर	-5324
▁प्रबल	-5325
▁फार्म	-5326
▁मेहरा	-5327
▁शुक्र	-5328
▁उल्लंघ	-5329
▁ऑनलाइन	-5330
▁डिग्री	-5331
▁दाँतों	-5332
▁पुष्टि	-5333
▁मद्रास	-5334
▁सिन्धु	-5335
▁हथियार	-5336
▁औपचारिक	-5337
▁संबोधित	-5338
▁प्रतिवर्ष	-5339
▁मंत्रियों	-5340
▁विधानमंडल	-5341
चऋ	-5342
वृ	-5343
ुड	-5344
बाल	-5345
मती	-5346
क्शन	-5347
ब्बे	-5348
▁ऋतु	-5349
▁कां	-5350
▁जमी	-5351
▁डाइ	-5352
▁सकी	-5353
▁समू	-5354
गोलिक	-5355
▁आज़ा	-5356
▁देशी	-5357
▁लेखन	-5358
▁संतु	-5359
▁सचिन	-5360
▁स्तन	-5361
▁हाला	-5362
▁अंततः	-5363
▁अग्नि	-5364
▁ऊंचाई	-5365
▁कृपया	-5366
▁पंडित	-5367
▁मुस्क	-5368
▁मैनें	-5369
▁वंचित	-5370
▁स्टार	-5371
▁समृद्ध	-5372
▁छात्रों	-5373
▁बांग्ला	-5374
▁विस्फोट	-5375
▁स्तंभों	-5376
▁निर्माता	-5377
▁प्रयुक्त	-5378
-6	-5379
aM	-5380
जऋ	-5381
ूस	-5382
han	-5383
याम	-5384
▁रथ	-5385
क्ता	-5386
र्मा	-5387
▁189	-5388
▁अलं	-5389
▁उपे	-5390
▁श्व	-5391
icket	-5392
▁इच्छ	-5393
▁उग्र	-5394
▁परिश	-5395
▁फायर	-5396
▁मकसद	-5397
▁मानो	-5398
▁राजग	-5399
▁अवतार	-5400
▁आस्था	-5401
▁कक्षा	-5402
▁कच्चे	-5403
▁केन्द	-5404
▁जर्मन	-5405
▁भरोसा	-5406
▁मनाया	-5407
▁सहारे	-5408
▁सीखने	-5409
▁अंडमान	-5410
▁ज़रुरत	-5411
▁तैयारी	-5412
▁निकाला	-5413
▁वर्गों	-5414
▁शाखाओं	-5415
▁स्वर्ण	-5416
▁भौगोलिक	-5417
▁निष्पक्ष	-5418
ri	-5419
कात	-5420
न्य	-5421
वीर	-5422
िक्	-5423
▁1,	-5424
▁एह	-5425
▁सश	-5426
डियॊ	-5427
लंका	-5428
▁चमक	-5429
▁जता	-5430
▁पूर	-5431
▁बीज	-5432
▁शरण	-5433
▁शुक	-5434
▁सूच	-5435
चंद्र	-5436
▁AaOr	-5437
▁कष्ट	-5438
▁दाँत	-5439
▁मनोर	-5440
▁राज़	-5441
▁रोचक	-5442
▁हुईं	-5443
▁अभिले	-5444
▁आकृति	-5445
▁भरपूर	-5446
▁भीतरी	-5447
▁लाहौर	-5448
▁पक्षों	-5449
▁मूलभूत	-5450
▁चेतावनी	-5451
▁परंपरागत	-5452
▁प्रोग्राम	-5453
▁मूल्यांकन	-5454
▁विश्वयुद्ध	-5455
▁ऑस्ट्रेलिया	-5456
▁उत्तरदायित्व	-5457
-4	-5458
डो	-5459
थन	-5460
यम	-5461
ॉर	-5462
्यक	-5463
ंतरण	-5464
ङिट्	-5465
धीरे	-5466
वर्ड	-5467
सेना	-5468
▁गोर	-5469
▁समु	-5470
▁सिख	-5471
▁हिट	-5472
▁१००	-5473
ंदर्य	-5474
▁ईमान	-5475
▁कहां	-5476
▁ड़ाल	-5477
▁नींव	-5478
▁पौधे	-5479
▁मुर्	-5480
▁रसाय	-5481
▁खेलने	-5482
▁तकिया	-5483
▁तिब्ब	-5484
▁परमाण	-5485
▁पशुओं	-5486
▁रहेंगे	-5487
▁स्वभाव	-5488
तांत्रिक	-5489
▁निकालने	-5490
▁संभावित	-5491
वैज्ञानिक	-5492
▁आवश्यकताओं	-5493
▁प्रभावशाली	-5494
▁महत्त्वपूर्ण	-5495
कै	-5496
ist	-5497
बिर	-5498
मों	-5499
लेस	-5500
ुलर	-5501
तरीन	-5502
ार्ध	-5503
▁188	-5504
▁बोध	-5505
▁मिथ	-5506
मूल्य	-5507
्योकि	-5508
▁इसमे	-5509
▁गवाह	-5510
▁टाटा	-5511
▁त्रि	-5512
▁नाइट	-5513
▁पेशे	-5514
▁बचने	-5515
▁भक्त	-5516
▁रिकॉ	-5517
▁रोमा	-5518
▁शाही	-5519
नेङिट्	-5520
▁रहेगी	-5521
▁लगाये	-5522
▁सोचना	-5523
▁गवर्नर	-5524
▁तमिलना	-5525
▁पड़ेगा	-5526
▁संतुलन	-5527
▁संवेदन	-5528
▁सम्बंध	-5529
▁साधनों	-5530
▁कविताओं	-5531
▁केन्द्रीय	-5532
11	-5533
पह	-5534
शय	-5535
are	-5536
कुर	-5537
नान	-5538
राक	-5539
ारण	-5540
ूली	-5541
▁रस	-5542
▁सख	-5543
▁अद्	-5544
▁भीम	-5545
▁वोट	-5546
▁साज	-5547
▁होम	-5548
दाबाद	-5549
हारिक	-5550
▁कड़ी	-5551
▁गलती	-5552
▁देखी	-5553
▁मौके	-5554
▁श्रम	-5555
▁सफाई	-5556
ानुसार	-5557
▁कब्जा	-5558
▁नामों	-5559
▁न्यूय	-5560
▁पार्क	-5561
▁बाध्य	-5562
▁बोलने	-5563
▁सोचने	-5564
▁आकर्षण	-5565
▁इलाकों	-5566
▁मन्त्र	-5567
▁मिलेगा	-5568
▁मिलेगी	-5569
▁स्कूलों	-5570
▁प्रतिष्ठित	-5571
अल	-5572
ॊं	-5573
ँकि	-5574
जिस	-5575
णीय	-5576
सरों	-5577
▁नाय	-5578
राणिक	-5579
▁1999	-5580
▁अण्ड	-5581
▁ईंधन	-5582
▁उपभो	-5583
▁कोने	-5584
▁खेती	-5585
▁जरिए	-5586
▁टेक्	-5587
▁डाउन	-5588
▁रेगि	-5589
▁वनों	-5590
▁सबके	-5591
▁समेत	-5592
धिकारी	-5593
▁जिन्ह	-5594
▁मुंशी	-5595
▁लाखों	-5596
▁सिस्ट	-5597
▁स्तूप	-5598
▁सोनिया	-5599
▁कृत्रिम	-5600
▁क्यूंकि	-5601
▁बौद्धिक	-5602
▁विचित्र	-5603
▁शिक्षित	-5604
▁क्षेत्रर	-5605
▁किलोग्राम	-5606
▁सर्वप्रथम	-5607
▁जिम्मेदारी	-5608
hi	-5609
नक	-5610
वो	-5611
डों	-5612
हें	-5613
ान्	-5614
्टा	-5615
▁4.	-5616
क्की	-5617
त्रि	-5618
बामा	-5619
ामान	-5620
▁खां	-5621
▁ज्व	-5622
▁बडी	-5623
▁सॉल	-5624
▁सोल	-5625
स्वती	-5626
▁खूबस	-5627
▁नाते	-5628
▁पांड	-5629
▁पायी	-5630
ग्रस्त	-5631
▁कनाडा	-5632
▁तुमने	-5633
▁लम्बे	-5634
▁संतान	-5635
▁हितों	-5636
▁होंगी	-5637
▁तुर्की	-5638
▁नमूनों	-5639
▁संबद्ध	-5640
▁सकेंगे	-5641
▁एकत्रित	-5642
▁चित्रों	-5643
▁श्रीलंका	-5644
ma	-5645
एच	-5646
षे	-5647
est	-5648
for	-5649
ind	-5650
ive	-5651
िमा	-5652
२००	-5653
मर्श	-5654
▁187	-5655
▁काठ	-5656
▁चुप	-5657
▁नहर	-5658
▁बडे	-5659
▁भंग	-5660
▁यथा	-5661
▁रवि	-5662
▁सैक	-5663
▁हुक	-5664
▁1947	-5665
▁2001	-5666
▁अंतत	-5667
▁इण्ड	-5668
▁खुला	-5669
▁गर्व	-5670
▁पाठक	-5671
▁वैसा	-5672
▁सकने	-5673
▁आशंका	-5674
▁उठाया	-5675
▁मान्य	-5676
▁श्वेत	-5677
▁संवाद	-5678
▁समझता	-5679
▁निकलती	-5680
▁मिलियन	-5681
▁स्टेशन	-5682
▁जबरदस्त	-5683
▁टिप्पणी	-5684
▁पुराणों	-5685
▁मित्रों	-5686
▁नागरिकता	-5687
▁पूर्णतया	-5688
▁वास्तविकता	-5689
-3	-5690
-5	-5691
ant	-5692
ेतन	-5693
▁धम	-5694
▁पच	-5695
▁भि	-5696
▁१४	-5697
ंशिक	-5698
फिया	-5699
िक्स	-5700
्यूर	-5701
▁जड़	-5702
▁ज़ि	-5703
▁निब	-5704
▁रवै	-5705
▁वाण	-5706
▁साई	-5707
▁ह्र	-5708
▁चलती	-5709
▁चार्	-5710
▁तनाव	-5711
▁पदों	-5712
▁बनना	-5713
▁रत्न	-5714
▁वर्क	-5715
ियारों	-5716
्टवेयर	-5717
▁इन्टर	-5718
▁दर्जा	-5719
▁निकाय	-5720
▁पक्षी	-5721
▁पढ़ाई	-5722
▁बढ़ता	-5723
▁मकबरा	-5724
▁लगेगा	-5725
▁लड़की	-5726
▁हानिक	-5727
▁ड्रग्स	-5728
▁उल्लंघन	-5729
▁रिकार्ड	-5730
▁समाजवाद	-5731
▁स्ट्राइ	-5732
▁अध्यादेश	-5733
▁पुस्तिका	-5734
▁वर्गीकरण	-5735
▁शक्तियां	-5736
▁निर्वाचित	-5737
▁भ्रष्टाचार	-5738
▁प्रोत्साहित	-5739
-9	-5740
10	-5741
64	-5742
ard	-5743
उंट	-5744
कूट	-5745
खें	-5746
ज़न	-5747
ढ़े	-5748
रित	-5749
लाब	-5750
▁70	-5751
▁ऋष	-5752
▁कॊ	-5753
▁छः	-5754
▁अमी	-5755
▁कोष	-5756
▁गार	-5757
▁दमन	-5758
▁नाग	-5759
▁बचे	-5760
▁सरी	-5761
्टूबर	-5762
▁आजकल	-5763
▁जल्द	-5764
▁तिलक	-5765
▁पद्म	-5766
▁बहती	-5767
▁भव्य	-5768
▁मेहन	-5769
▁राजी	-5770
ध्यक्ष	-5771
▁तुलसी	-5772
▁बढ़ते	-5773
▁भीष्म	-5774
▁सिवाय	-5775
▁हफ्ते	-5776
▁ग्राहक	-5777
▁मिशनरी	-5778
▁वीडियॊ	-5779
▁अक्टूबर	-5780
▁आधारभूत	-5781
▁गतिविधि	-5782
▁दिलचस्प	-5783
▁बेहतरीन	-5784
▁समकालीन	-5785
▁प्रदूषकों	-5786
▁सकारात्मक	-5787
▁सर्वेक्षण	-5788
▁स्थितियों	-5789
घन	-5790
ङ्	-5791
ूण	-5792
ेय	-5793
ॉप	-5794
कोष	-5795
ज़े	-5796
डऋआ	-5797
नीत	-5798
राम	-5799
ुणा	-5800
▁तू	-5801
नाइट	-5802
मकिन	-5803
वर्ग	-5804
श्ता	-5805
्यिक	-5806
▁अल्	-5807
▁कैम	-5808
▁रुक	-5809
लियों	-5810
ोत्तर	-5811
▁अक़्	-5812
▁अवैध	-5813
▁ऑफिस	-5814
▁क्लब	-5815
▁गोली	-5816
▁संधि	-5817
▁दर्शक	-5818
▁दुकान	-5819
▁दुर्ग	-5820
▁मारने	-5821
▁संपाद	-5822
▁अद्भुत	-5823
▁अब्दुल	-5824
▁उपग्रह	-5825
▁करवाया	-5826
▁प्रायः	-5827
▁राजस्व	-5828
▁विद्या	-5829
▁सेवाएं	-5830
▁व्यैक्त	-5831
▁समाप्ति	-5832
▁सरस्वती	-5833
▁संप्रदाय	-5834
▁समस्याएं	-5835
ub	-5836
ऊँ	-5837
ऋआ	-5838
भास	-5839
र्भ	-5840
शित	-5841
▁kI	-5842
▁ऋण	-5843
▁जोध	-5844
▁नील	-5845
▁यौन	-5846
▁वीं	-5847
गरानी	-5848
▁2007	-5849
▁किस्	-5850
▁टांग	-5851
▁धुंध	-5852
▁सन्द	-5853
▁सिने	-5854
▁सूती	-5855
तन्त्र	-5856
▁अंगों	-5857
▁खाड़ी	-5858
▁घुड़स	-5859
▁घोड़े	-5860
▁चावला	-5861
▁जॉर्ज	-5862
▁तथापि	-5863
▁नमूना	-5864
▁लगाते	-5865
▁इन्हीं	-5866
▁गिरावट	-5867
▁परमाणु	-5868
▁बाज़ार	-5869
▁मानवता	-5870
▁विकिरण	-5871
▁शुरूआत	-5872
▁सभापति	-5873
▁इमारतें	-5874
▁योग्यता	-5875
▁आमंत्रित	-5876
▁महाद्वीप	-5877
▁किरायेदार	-5878
▁आतंकवादियों	-5879
na	-5880
आप	-5881
लत	-5882
art	-5883
जाल	-5884
दरा	-5885
देशी	-5886
स्पद	-5887
▁असी	-5888
▁गहन	-5889
▁घुस	-5890
▁छिप	-5891
▁जरा	-5892
▁डाक	-5893
▁ढूँ	-5894
विचार	-5895
▁गणेश	-5896
▁ब्ले	-5897
▁मसलन	-5898
▁साहब	-5899
▁स्ना	-5900
्रोतों	-5901
▁उपाधि	-5902
▁कट्टर	-5903
▁निराश	-5904
▁मकबरे	-5905
▁राक्ष	-5906
▁रोशनी	-5907
▁विवेक	-5908
▁बुलाया	-5909
▁मिश्रण	-5910
▁यथार्थ	-5911
▁स्थाना	-5912
▁इकाइयों	-5913
▁निगरानी	-5914
▁पौराणिक	-5915
▁व्यायाम	-5916
▁गिरफ्तार	-5917
▁परिवारों	-5918
▁संसाधनों	-5919
▁आवेदनपत्र	-5920
▁प्राणियों	-5921
▁अपेक्षाकृत	-5922
2)	-5923
चाप	-5924
ाणु	-5925
▁45	-5926
▁झा	-5927
▁डू	-5928
▁तप	-5929
▁रज	-5930
▁२२	-5931
ंचाई	-5932
पाली	-5933
र्चे	-5934
▁इंद	-5935
▁चिप	-5936
▁बढा	-5937
▁मले	-5938
▁मुश	-5939
तानों	-5940
भिन्न	-5941
व्यों	-5942
▁अंडे	-5943
▁अवयव	-5944
▁कलाम	-5945
▁जादू	-5946
▁बनकर	-5947
▁वाहन	-5948
▁विषा	-5949
▁सबूत	-5950
▁सिया	-5951
▁२००६	-5952
▁अपवाद	-5953
▁कटौती	-5954
▁गुणों	-5955
▁चिन्ह	-5956
▁मेहनत	-5957
स्थापित	-5958
▁चित्रण	-5959
▁मशीनों	-5960
▁रियासत	-5961
▁प्रस्तावित	-5962
▁व्यक्तित्व	-5963
ँस	-5964
जि	-5965
बत	-5966
ेव	-5967
ोश	-5968
rop	-5969
दाद	-5970
नाई	-5971
▁36	-5972
बाजी	-5973
य्या	-5974
▁उधर	-5975
▁झेल	-5976
▁डाय	-5977
▁हते	-5978
कालिक	-5979
क्राम	-5980
ख्यात	-5981
डियों	-5982
▁1930	-5983
▁इनको	-5984
▁औजार	-5985
▁केरल	-5986
▁प्रच	-5987
▁रोमन	-5988
▁ओबामा	-5989
▁खंडों	-5990
▁दुश्म	-5991
▁वर्षो	-5992
▁सॉल्व	-5993
▁उद्यान	-5994
▁रणनीति	-5995
▁रोजगार	-5996
▁पुरुषों	-5997
▁उत्पादों	-5998
▁केंद्रित	-5999
▁पुस्तकों	-6000
▁मानचित्र	-6001
20	-6002
ऋए	-6003
बु	-6004
ीस	-6005
ine	-6006
टलर	-6007
पार	-6008
पेट	-6009
मीन	-6010
ूमत	-6011
▁be	-6012
▁or	-6013
▁एफ	-6014
ंचार	-6015
कल्प	-6016
जनों	-6017
परिव	-6018
बंदी	-6019
भगृह	-6020
शिंग	-6021
संगत	-6022
ेक्ट	-6023
▁अंज	-6024
▁जाओ	-6025
▁बहन	-6026
▁बाई	-6027
▁शिल	-6028
▁हंस	-6029
▁हैः	-6030
▁1939	-6031
▁इनसे	-6032
▁उर्व	-6033
▁करार	-6034
▁ठहरा	-6035
▁भीड़	-6036
▁मातृ	-6037
▁मोती	-6038
▁रद्द	-6039
▁रिहा	-6040
▁रोज़	-6041
▁समझे	-6042
▁सुलझ	-6043
▁आंखों	-6044
▁जितने	-6045
▁पोस्ट	-6046
▁मिलना	-6047
▁लिप्य	-6048
ानुभूति	-6049
▁अन्यथा	-6050
▁जोधपुर	-6051
▁प्राणी	-6052
▁बढ़ावा	-6053
▁सुन्दर	-6054
▁स्मारक	-6055
▁स्वच्छ	-6056
▁दायित्व	-6057
▁मुख्यतः	-6058
▁मुद्दों	-6059
▁सौंदर्य	-6060
▁स्त्रोत	-6061
▁इन्टरनेट	-6062
▁तुम्हारी	-6063
▁शास्त्रीय	-6064
▁संयंत्रों	-6065
▁विद्यार्थी	-6066
ik	-6067
शो	-6068
५६	-6069
ror	-6070
वुड	-6071
्य्	-6072
्रय	-6073
▁अठ	-6074
▁इश	-6075
▁तृ	-6076
▁लड	-6077
▁२५	-6078
कर्म	-6079
ध्या	-6080
पर्क	-6081
िएशन	-6082
▁भूत	-6083
▁रिस	-6084
▁लहर	-6085
▁लाई	-6086
दारों	-6087
वाद्य	-6088
▁अनाज	-6089
▁आगमन	-6090
▁एक्ट	-6091
▁करोड	-6092
▁दावे	-6093
▁पड़ै	-6094
▁रिली	-6095
▁सुनी	-6096
▁सेवन	-6097
▁अत्या	-6098
▁एहसास	-6099
▁जैविक	-6100
▁प्रदु	-6101
▁रोगों	-6102
▁आदेशों	-6103
▁पहुँचे	-6104
▁प्रयाग	-6105
▁मुक़्त	-6106
▁संसाधन	-6107
▁कानूनों	-6108
▁गर्भगृह	-6109
▁प्रयोजन	-6110
▁संक्षेप	-6111
▁अंग्रेज़	-6112
▁कम्प्यूटर	-6113
▁स्ट्राइकर	-6114
▁निर्माताओं	-6115
ge	-6116
ँघ	-6117
णे	-6118
खंड	-6119
दूत	-6120
प्ट	-6121
साइ	-6122
िवे	-6123
ोन्	-6124
ंध्र	-6125
बारी	-6126
रेखा	-6127
र्षि	-6128
००००	-6129
▁con	-6130
▁इंक	-6131
▁कप्	-6132
▁प्य	-6133
▁बंट	-6134
▁बकर	-6135
िस्तर	-6136
▁अखिल	-6137
▁अशोक	-6138
▁कोमल	-6139
▁ग्रे	-6140
▁ताजा	-6141
▁दत्त	-6142
▁धीमी	-6143
▁शर्म	-6144
▁संगठ	-6145
▁ओवरों	-6146
▁कार्ड	-6147
▁चेहरा	-6148
▁जुड़ा	-6149
▁परिदृ	-6150
▁ब्राउ	-6151
▁माहौल	-6152
▁मिलों	-6153
▁लगाकर	-6154
▁संकलक	-6155
▁हिटलर	-6156
▁डिजाइन	-6157
▁निष्ठा	-6158
▁देखेंगे	-6159
▁प्रदुषण	-6160
▁विवेकान	-6161
▁अफ़्रीका	-6162
▁पाण्डवों	-6163
▁अभियुक़्त	-6164
▁व्यक़्तियों	-6165
In	-6166
फॉ	-6167
यद	-6168
ॉग	-6169
SBN	-6170
िणी	-6171
▁गज	-6172
▁घृ	-6173
▁ठे	-6174
ंकित	-6175
कार्	-6176
यालय	-6177
ल्ला	-6178
ैक्ट	-6179
▁आदर	-6180
▁आधी	-6181
▁इऋर	-6182
▁जगत	-6183
▁जिल	-6184
▁दूत	-6185
▁अज्ञ	-6186
▁दलों	-6187
▁प्ला	-6188
▁बजाए	-6189
निकेतन	-6190
▁उत्सव	-6191
▁उद्यम	-6192
▁प्रका	-6193
▁बनाता	-6194
▁सरदार	-6195
▁सैन्य	-6196
▁टांगों	-6197
▁हालंकि	-6198
▁इमारतों	-6199
▁दोस्तों	-6200
▁इंजीनियर	-6201
▁कार्यकाल	-6202
▁रचनात्मक	-6203
▁समुदायों	-6204
▁क्षेत्रफल	-6205
▁सर्वोत्तम	-6206
▁स्त्रियों	-6207
▁हस्तक्षेप	-6208
▁प्रजातियों	-6209
▁व्यावहारिक	-6210
आव	-6211
ॉय	-6212
ess	-6213
ग्व	-6214
बली	-6215
साई	-6216
▁St	-6217
▁फो	-6218
▁मृ	-6219
धारी	-6220
ल्ले	-6221
▁अनऋ	-6222
▁इधर	-6223
▁घात	-6224
▁रकम	-6225
▁लखन	-6226
▁शेख	-6227
शिल्प	-6228
िल्ला	-6229
्रपान	-6230
्रोजन	-6231
▁चालू	-6232
▁पराज	-6233
▁बनते	-6234
▁मंदी	-6235
▁मन्द	-6236
▁साफ़	-6237
▁स्पी	-6238
व्यापी	-6239
▁अर्जी	-6240
▁इंकार	-6241
▁ऊँचाई	-6242
▁चाहें	-6243
▁चिह्न	-6244
▁पढ़ना	-6245
▁लीजिए	-6246
कांक्षा	-6247
▁इन्द्र	-6248
▁उपक्रम	-6249
▁कप्तान	-6250
▁चट्टान	-6251
▁बिक्री	-6252
▁विरासत	-6253
▁सोवियत	-6254
▁गणराज्य	-6255
▁डाउनलोड	-6256
▁प्रतिकूल	-6257
▁उत्सर्जित	-6258
▁कार्यक्रमों	-6259
▁शांतिनिकेतन	-6260
थल	-6261
रस	-6262
गें	-6263
ढ़ा	-6264
बहु	-6265
शास	-6266
▁जऋ	-6267
▁झू	-6268
▁सड	-6269
pher	-6270
▁अमल	-6271
▁खनि	-6272
▁चरम	-6273
▁जाग	-6274
▁नकल	-6275
▁बुल	-6276
▁रिट	-6277
▁सिम	-6278
स्पति	-6279
▁आन्द	-6280
▁कहें	-6281
▁दांत	-6282
▁देनी	-6283
▁बेशक	-6284
▁लड़े	-6285
▁लाये	-6286
▁शोषण	-6287
▁प्रेस	-6288
▁बदलते	-6289
▁इकट्ठा	-6290
▁तत्काल	-6291
▁तथ्यों	-6292
▁भरतपुर	-6293
▁मुहैया	-6294
▁विपक्ष	-6295
▁व्यस्त	-6296
▁खूबसूरत	-6297
▁चिकित्स	-6298
▁रोगियों	-6299
▁स्वीकृत	-6300
▁हिस्सों	-6301
▁प्रवृत्ति	-6302
▁प्राथमिकता	-6303
.3	-6304
८०	-6305
टें	-6306
यदि	-6307
ोंक	-6308
्रु	-6309
▁pr	-6310
▁शह	-6311
गीता	-6312
नाटक	-6313
र्रफ	-6314
▁आवि	-6315
▁कॉल	-6316
▁खपत	-6317
▁त्व	-6318
▁पडा	-6319
▁पडे	-6320
▁पतन	-6321
▁पाप	-6322
▁वोल	-6323
▁हाई	-6324
दियों	-6325
र्वेद	-6326
▁कब्र	-6327
▁कौशल	-6328
▁दिवस	-6329
▁देशभ	-6330
▁पंजी	-6331
▁मछली	-6332
▁विफल	-6333
चन्द्र	-6334
ामान्य	-6335
▁आंशिक	-6336
▁कालेज	-6337
▁कोनों	-6338
▁गीतों	-6339
▁दिखता	-6340
▁भर्ती	-6341
▁अभ्यास	-6342
▁दुर्गा	-6343
▁पंजाबी	-6344
▁कृत्यों	-6345
▁चुनावों	-6346
▁विमानों	-6347
▁पुस्तकाल	-6348
▁बहुमूल्य	-6349
▁ज़्यादातर	-6350
▁प्रगतिशील	-6351
ew	-6352
ॊग	-6353
गड़	-6354
गीर	-6355
निर	-6356
मैन	-6357
याब	-6358
ल्ह	-6359
ूदी	-6360
▁३०	-6361
गरीय	-6362
वर्त	-6363
स्टी	-6364
▁अन्	-6365
▁ओवर	-6366
▁छेद	-6367
▁बसे	-6368
▁मजा	-6369
▁लेन	-6370
▁हरी	-6371
दिष्ट	-6372
बारों	-6373
ब्लिक	-6374
भाषित	-6375
▁कंपन	-6376
▁चिट्	-6377
▁तरफ़	-6378
▁आंखें	-6379
▁आंध्र	-6380
▁इंद्र	-6381
▁उर्वर	-6382
▁दुसरे	-6383
▁निकला	-6384
▁पंचाय	-6385
▁संयोग	-6386
▁साम्य	-6387
▁टाइम्स	-6388
▁प्रवास	-6389
▁हुकूमत	-6390
▁अत्यन्त	-6391
▁उपलब्धि	-6392
▁कर्नाटक	-6393
▁काउंसिल	-6394
▁कारोबार	-6395
▁बंदरगाह	-6396
▁मुशर्रफ	-6397
▁संतुष्ट	-6398
▁अनिश्चित	-6399
▁परिपूर्ण	-6400
▁पुस्तकें	-6401
▁मुख्यालय	-6402
▁सहानुभूति	-6403
▁प्रतिनिधियों	-6404
77	-6405
रन	-6406
सब	-6407
ैट	-6408
जिन	-6409
वाट	-6410
शोर	-6411
साह	-6412
ात्	-6413
िनि	-6414
ैली	-6415
ोनो	-6416
▁दम	-6417
पालन	-6418
वकों	-6419
ुदेव	-6420
▁अनो	-6421
▁लाइ	-6422
▁हिल	-6423
शिष्ट	-6424
▁तलाश	-6425
▁त्यौ	-6426
▁पटेल	-6427
▁बादल	-6428
▁बुरे	-6429
▁बेटी	-6430
ग्रन्थ	-6431
▁अठारह	-6432
▁पीड़ा	-6433
▁मुर्ग	-6434
▁वाणिज	-6435
त्ताकार	-6436
▁अक़्सर	-6437
▁रचनाओं	-6438
▁वाल्मी	-6439
▁समन्वय	-6440
▁सृष्टि	-6441
▁ग्रंथों	-6442
▁विधियों	-6443
▁संगठनों	-6444
▁हालाँकि	-6445
▁उत्कीर्ण	-6446
▁कोशिकाएं	-6447
▁राज़्यों	-6448
▁विधानसभा	-6449
▁कार्यकारी	-6450
▁प्रतिष्ठा	-6451
कू	-6452
aar	-6453
ece	-6454
कलन	-6455
प्न	-6456
वधि	-6457
▁अं	-6458
▁ऊँ	-6459
▁ऊन	-6460
▁द्	-6461
क्कर	-6462
ताएं	-6463
ांकन	-6464
िकों	-6465
ुकला	-6466
ुलिन	-6467
▁आदत	-6468
▁मीन	-6469
न्याय	-6470
▁1948	-6471
▁उपास	-6472
▁काली	-6473
▁बैठा	-6474
▁मुना	-6475
▁लाना	-6476
▁२०००	-6477
▁अभिनय	-6478
▁दर्जे	-6479
▁निंदा	-6480
▁पल्लव	-6481
▁पाठ्य	-6482
▁मक्का	-6483
▁रसायन	-6484
▁लार्ड	-6485
▁स्कोर	-6486
▁इंदिरा	-6487
▁गारंटी	-6488
▁दिखायी	-6489
▁बिस्तर	-6490
▁महर्षि	-6491
▁मुम्बई	-6492
▁आपातकाल	-6493
▁मंत्रिम	-6494
▁मजदूरों	-6495
▁संस्कार	-6496
▁गुणसूत्र	-6497
▁वास्तुकला	-6498
ov	-6499
uc	-6500
दह	-6501
ंडल	-6502
काय	-6503
टरी	-6504
तीं	-6505
बंद	-6506
़्म	-6507
ोरो	-6508
▁दै	-6509
Rece	-6510
ions	-6511
ड्डी	-6512
दायी	-6513
ुसार	-6514
▁अटल	-6515
▁एकल	-6516
▁कौर	-6517
▁गेह	-6518
▁ढेर	-6519
▁तित	-6520
▁नाप	-6521
▁परत	-6522
▁पेज	-6523
▁भगव	-6524
▁मेह	-6525
▁सरो	-6526
▁सोम	-6527
Giver	-6528
▁2005	-6529
▁कन्न	-6530
▁गुणा	-6531
▁चलकर	-6532
▁ढूँढ	-6533
▁पीने	-6534
▁बंधन	-6535
▁सड़े	-6536
▁सिक्	-6537
▁१०००	-6538
अंग्रे	-6539
क्रामक	-6540
फ्रेंस	-6541
मोबाइल	-6542
र्योधन	-6543
▁अरबों	-6544
▁त्रुट	-6545
▁दिखने	-6546
▁पैरों	-6547
▁लड़के	-6548
▁शिष्य	-6549
▁स्वाय	-6550
▁अभिलेख	-6551
▁अलंकरण	-6552
▁एशियाई	-6553
▁परिचित	-6554
▁भाइयों	-6555
▁युग़्म	-6556
▁विधायी	-6557
▁सदियों	-6558
▁सद्स्य	-6559
▁सिस्टम	-6560
▁स्वराज	-6561
Receiver	-6562
▁कविताएं	-6563
▁चाहूँगा	-6564
▁प्रत्या	-6565
▁प्रसारण	-6566
▁दुर्योधन	-6567
▁सुविधाओं	-6568
▁डाइऑक्साइड	-6569
▁प्रतिस्पर्धा	-6570
राव	-6571
िटल	-6572
ोटे	-6573
▁5.	-6574
▁ओज	-6575
▁फि	-6576
न्ट्	-6577
ीकृत	-6578
ौपदी	-6579
▁घटा	-6580
▁ड़ि	-6581
▁विह	-6582
▁व्र	-6583
▁सेक	-6584
क्रिय	-6585
निष्ठ	-6586
▁जोशी	-6587
▁फैले	-6588
▁बनती	-6589
▁मुआव	-6590
▁सूअर	-6591
भारतीय	-6592
मूर्ति	-6593
▁उर्जा	-6594
▁कराना	-6595
▁जागरण	-6596
▁जानती	-6597
▁ट्रिब	-6598
▁पड़ने	-6599
▁पूछता	-6600
▁बर्मा	-6601
▁लेंगे	-6602
▁कहलाते	-6603
▁दिशाओं	-6604
▁दुबारा	-6605
▁पुत्री	-6606
▁चलचित्र	-6607
▁प्रकाशन	-6608
▁सम्पर्क	-6609
▁दिलचस्पी	-6610
▁हथियारों	-6611
▁पुस्तकालय	-6612
▁मार्गदर्शन	-6613
▁राष्ट्रीयता	-6614
ai	-6615
ञ्	-6616
ear	-6617
ial	-6618
ise	-6619
one	-6620
माइ	-6621
▁75	-6622
▁नो	-6623
ical	-6624
ंड़ी	-6625
ंबित	-6626
जीवी	-6627
बीसी	-6628
मतों	-6629
रियर	-6630
र्ते	-6631
वरकर	-6632
ून्य	-6633
▁एक्	-6634
▁मरी	-6635
ष्कृत	-6636
ियमित	-6637
▁ISBN	-6638
▁एसोस	-6639
▁चौथा	-6640
▁जंगल	-6641
▁जनजा	-6642
▁नारी	-6643
▁सीखा	-6644
्टायिक	-6645
▁आगामी	-6646
▁घटकों	-6647
▁जोड़ा	-6648
▁बेकार	-6649
▁लिखते	-6650
▁सम्भव	-6651
▁स्मरण	-6652
▁अनुयाय	-6653
▁अनुसरण	-6654
▁अपनाने	-6655
▁आकर्षक	-6656
▁इंतजार	-6657
▁करवाने	-6658
▁पर्यटक	-6659
▁व्यतीत	-6660
▁शासकों	-6661
▁सिनेमा	-6662
▁अपराधों	-6663
▁द्रौपदी	-6664
▁प्रतिबि	-6665
▁मनोरंजन	-6666
▁मुकाबला	-6667
▁निरीक्षण	-6668
▁प्रयासों	-6669
▁वाल्मीकि	-6670
▁व्यवस्थित	-6671
ud	-6672
अनु	-6673
कॉम	-6674
टका	-6675
ड्य	-6676
त्थ	-6677
बीन	-6678
लीफ	-6679
वत्	-6680
सिड	-6681
ायु	-6682
▁En	-6683
रणों	-6684
ल्ली	-6685
वाड़	-6686
ैर्य	-6687
्युन	-6688
्रोल	-6689
▁केस	-6690
▁टेल	-6691
▁ड़ी	-6692
▁नवा	-6693
▁फर्	-6694
▁शिष	-6695
▁शेर	-6696
शक्ति	-6697
्रीकी	-6698
▁2002	-6699
▁अनंत	-6700
▁अनदे	-6701
▁अपरि	-6702
▁कॉपी	-6703
▁छिपा	-6704
▁तिरू	-6705
▁देखो	-6706
▁पचास	-6707
▁प्रद	-6708
▁ब्ला	-6709
▁समीप	-6710
▁स्ने	-6711
सरकारी	-6712
▁अक्षर	-6713
▁आग्रह	-6714
▁इनकार	-6715
▁कमीशन	-6716
▁जंगली	-6717
▁पेशकश	-6718
▁बेचने	-6719
▁लम्बा	-6720
▁वापसी	-6721
▁संतोष	-6722
▁अपराधी	-6723
▁सड़कों	-6724
▁इंसुलिन	-6725
▁किताबें	-6726
▁पुत्रों	-6727
▁महाराजा	-6728
▁मुल्कों	-6729
▁सन्दर्भ	-6730
▁उत्पत्ति	-6731
▁ट्रिब्यू	-6732
▁प्रमाणित	-6733
▁अनुयायियों	-6734
▁आश्चर्यजनक	-6735
▁प्रक्रियाओं	-6736
▁हिंदुस्तानी	-6737
)(	-6738
))	-6739
18	-6740
hr	-6741
ht	-6742
ld	-6743
एफ	-6744
ain	-6745
ism	-6746
ऋति	-6747
कोज	-6748
जान	-6749
तेह	-6750
सतन	-6751
ापऋ	-6752
ासल	-6753
▁गि	-6754
▁फु	-6755
tern	-6756
ंडिक	-6757
एसएस	-6758
कांक	-6759
क्के	-6760
न्नी	-6761
बहुत	-6762
र्गत	-6763
र्सी	-6764
▁अलै	-6765
▁ईंट	-6766
▁ऑफ़	-6767
▁गंग	-6768
▁बलि	-6769
▁बेर	-6770
म्परा	-6771
विष्ट	-6772
▁1945	-6773
▁1998	-6774
▁अधिर	-6775
▁असंत	-6776
▁इंजन	-6777
▁घातक	-6778
▁चलना	-6779
▁तेंड	-6780
▁नजदी	-6781
▁पोषण	-6782
▁बगैर	-6783
▁मंगल	-6784
नात्मक	-6785
▁कपड़ा	-6786
▁करुणा	-6787
▁कार्ट	-6788
▁जरुरत	-6789
▁जोड़ी	-6790
▁ड़ॉलर	-6791
▁तारीख	-6792
▁दिखती	-6793
▁मंजिल	-6794
▁यहूदी	-6795
त्रियों	-6796
▁अज्ञात	-6797
▁कहलाती	-6798
▁तुम्हे	-6799
▁पुरातन	-6800
▁मन्दिर	-6801
▁वाशिंग	-6802
▁सावरकर	-6803
▁कृतियों	-6804
▁पत्थरों	-6805
▁लक्षणों	-6806
▁व्याकरण	-6807
▁सूचकांक	-6808
▁घुड़सवार	-6809
▁तेंडुलकर	-6810
▁राजकुमार	-6811
▁विकासशील	-6812
▁धारावाहिक	-6813
▁निर्देशित	-6814
▁प्रयोगशाला	-6815
ev	-6816
चौ	-6817
यत	-6818
्ध	-6819
ort	-6820
असल	-6821
काज	-6822
पूत	-6823
बूझ	-6824
ब्ल	-6825
मंद	-6826
िएत	-6827
ियॉ	-6828
्रल	-6829
▁टो	-6830
▁२१	-6831
चरित	-6832
निंग	-6833
यकों	-6834
लांग	-6835
वाने	-6836
स्ते	-6837
हवीं	-6838
ीयों	-6839
▁186	-6840
▁अपह	-6841
▁ढाल	-6842
▁पेर	-6843
▁फेफ	-6844
▁बिन	-6845
▁लाज	-6846
न्तरण	-6847
फोर्ड	-6848
स्टिक	-6849
हिन्द	-6850
ायनिक	-6851
▁1921	-6852
▁अश्व	-6853
▁उठता	-6854
▁औसतन	-6855
▁गठित	-6856
▁दक्ष	-6857
▁निपट	-6858
▁फैली	-6859
▁रहकर	-6860
▁राहत	-6861
▁लायक	-6862
▁वल्ल	-6863
▁संया	-6864
▁सपने	-6865
▁इंग्ल	-6866
▁उठाना	-6867
▁औरतों	-6868
▁गोपुर	-6869
▁जयपुर	-6870
▁धैर्य	-6871
▁प्राण	-6872
▁प्रोज	-6873
▁मिलें	-6874
▁मैचों	-6875
▁सीखना	-6876
▁हटाने	-6877
▁अग्रणी	-6878
▁अनुरोध	-6879
▁अम्लीय	-6880
▁आंकड़े	-6881
▁खरीदने	-6882
▁खुफिया	-6883
▁जैसाकि	-6884
▁नेपाली	-6885
▁मुमकिन	-6886
▁सीमेंट	-6887
▁सोविएत	-6888
▁आन्दोलन	-6889
▁उपनिवेश	-6890
▁उपेक्षा	-6891
▁त्यौहार	-6892
▁परम्परा	-6893
▁रिकॉर्ड	-6894
▁निर्देशक	-6895
▁दुर्भाग्य	-6896
▁प्रतीक्षा	-6897
▁व्याख़्या	-6898
▁अभिव्यक्ति	-6899
▁भविष्यवाणी	-6900
खन	-6901
डन	-6902
ाफ	-6903
२०	-6904
ary	-6905
एमई	-6906
णसी	-6907
दोष	-6908
फ़े	-6909
▁cr	-6910
▁शर	-6911
गामी	-6912
मताज	-6913
मांक	-6914
स्सी	-6915
ॉर्क	-6916
▁500	-6917
▁छंद	-6918
▁नोक	-6919
▁मज़	-6920
▁विघ	-6921
▁शैल	-6922
▁सहन	-6923
क़्की	-6924
ख्यान	-6925
ताकार	-6926
प्राय	-6927
▁1984	-6928
▁गौरव	-6929
▁जीता	-6930
▁परिक	-6931
▁रहित	-6932
▁लिंक	-6933
▁लिहा	-6934
▁लोकल	-6935
▁२००५	-6936
ाधिकार	-6937
ाराणसी	-6938
▁कृत्य	-6939
▁ठाकुर	-6940
▁त्वचा	-6941
▁दरासल	-6942
▁खिलाफत	-6943
▁ग्रीवा	-6944
▁प्रकरण	-6945
▁प्रोफे	-6946
▁फिलहाल	-6947
▁बीकाने	-6948
▁मुक्ति	-6949
▁राजपूत	-6950
▁विचारण	-6951
▁अनुशासन	-6952
▁तत्पश्च	-6953
▁मित्रता	-6954
▁अस्वीकार	-6955
▁स्वायत्त	-6956
▁उद्देश्यों	-6957
इए	-6958
तू	-6959
यो	-6960
-19	-6961
aao	-6962
ऋया	-6963
जरत	-6964
दीन	-6965
रेख	-6966
िमी	-6967
▁33	-6968
▁34	-6969
▁he	-6970
▁मण	-6971
▁र्	-6972
ोरों	-6973
▁टूल	-6974
▁बसा	-6975
▁मेर	-6976
▁वान	-6977
▁सुग	-6978
▁हता	-6979
▁हुऋ	-6980
▁ईस्ट	-6981
▁उपजा	-6982
▁ख़ुद	-6983
▁पागल	-6984
▁पौंड	-6985
▁भृंग	-6986
▁मच्छ	-6987
▁सल्ल	-6988
▁सुपर	-6989
▁सॉफ़	-6990
▁हंसी	-6991
▁अखबार	-6992
▁आज़ाद	-6993
▁कामों	-6994
▁जिसको	-6995
▁पुण्य	-6996
▁शून्य	-6997
▁समूचे	-6998
▁साधना	-6999
▁अनेकों	-7000
▁कीमतों	-7001
▁कैरियर	-7002
▁चिंतित	-7003
▁टांगें	-7004
▁मक़्खी	-7005
▁मनोनीत	-7006
▁मुमताज	-7007
▁अखबारों	-7008
▁अनुयायी	-7009
▁उच्चारण	-7010
▁व्याप्त	-7011
▁सुधारों	-7012
▁स्वार्थ	-7013
▁श्रमिकों	-7014
▁भावनात्मक	-7015
ED	-7016
au	-7017
hy	-7018
्क	-7019
ack	-7020
ama	-7021
गृह	-7022
न्च	-7023
युग	-7024
ाइल	-7025
▁उछ	-7026
▁चक	-7027
▁टू	-7028
▁नल	-7029
प्रद	-7030
्रीट	-7031
्वार	-7032
▁कीं	-7033
▁डिज	-7034
▁डिप	-7035
▁दुः	-7036
▁नबी	-7037
▁बचत	-7038
▁वसा	-7039
वेदना	-7040
▁(196	-7041
▁1973	-7042
▁कहकर	-7043
▁कारी	-7044
▁क्यु	-7045
▁द्रो	-7046
▁पैदल	-7047
▁फर्श	-7048
▁बंदी	-7049
▁भरने	-7050
▁लखनऊ	-7051
▁लगाव	-7052
▁विवश	-7053
▁व्रत	-7054
स्तरीय	-7055
▁अवशेष	-7056
▁अहसास	-7057
▁आईएमई	-7058
▁काठमा	-7059
▁टैगोर	-7060
▁पुष्प	-7061
▁बारिश	-7062
▁बालों	-7063
▁बिंदु	-7064
▁संचित	-7065
▁कौंसिल	-7066
▁प्रशास	-7067
▁मेहराब	-7068
▁रूपांत	-7069
▁वर्ल्ड	-7070
▁वृद्धा	-7071
▁व्यर्थ	-7072
▁समावेश	-7073
▁सिंचाई	-7074
▁गांधीजी	-7075
▁जालस्थल	-7076
▁प्रतिमा	-7077
▁परिभाषित	-7078
▁विज्ञापन	-7079
▁समितियां	-7080
▁हानिकारक	-7081
▁सामान्यतः	-7082
▁विद्यार्थियों	-7083
.4	-7084
ok	-7085
टु	-7086
▁%	-7087
उंड	-7088
ओन्	-7089
मिल	-7090
ोपी	-7091
▁डो	-7092
▁मं	-7093
▁मऋ	-7094
कावट	-7095
क्या	-7096
गैरह	-7097
यरों	-7098
ापुर	-7099
िखित	-7100
▁इले	-7101
▁कलश	-7102
▁कस्	-7103
▁गरम	-7104
▁जोश	-7105
▁दाल	-7106
▁फास	-7107
व्यास	-7108
ोनिया	-7109
▁अथॉर	-7110
▁आघात	-7111
▁उतने	-7112
▁कचरे	-7113
▁खनिज	-7114
▁खुदा	-7115
▁गायब	-7116
▁जीते	-7117
▁जीने	-7118
▁तात्	-7119
▁पावर	-7120
▁ममता	-7121
▁राणा	-7122
▁श्या	-7123
▁सेंट	-7124
ोपरांत	-7125
▁खुराक	-7126
▁डालते	-7127
▁तिहाई	-7128
▁दरअसल	-7129
▁दवाओं	-7130
▁निबंध	-7131
▁प्रां	-7132
▁मायने	-7133
▁लिखना	-7134
▁सुनकर	-7135
▁सुनाई	-7136
▁स्नान	-7137
ोनेशिया	-7138
▁ताकतवर	-7139
▁भेदभाव	-7140
▁मरम्मत	-7141
▁माइक्र	-7142
▁विनियम	-7143
▁स्वप्न	-7144
▁दर्शकों	-7145
▁विवादों	-7146
▁सैनिकों	-7147
▁अभियुक्त	-7148
▁उत्तेजित	-7149
▁प्राधिकार	-7150
▁संवेदनशील	-7151
▁साम्यवादी	-7152
fl	-7153
६०	-7154
ंजर	-7155
खिक	-7156
गीय	-7157
बोध	-7158
महा	-7159
लता	-7160
लिन	-7161
वाज	-7162
ाहट	-7163
िक़	-7164
ेली	-7165
▁ac	-7166
▁२३	-7167
▁५०	-7168
न्तर	-7169
न्ने	-7170
ब्रा	-7171
भूषण	-7172
राने	-7173
लेखन	-7174
▁अंप	-7175
▁अनू	-7176
▁चलो	-7177
▁ड़ॉ	-7178
▁तैर	-7179
▁थें	-7180
▁सूअ	-7181
▁हाइ	-7182
ंतरित	-7183
ल्हों	-7184
संदेह	-7185
िस्टर	-7186
▁आपसी	-7187
▁कुरु	-7188
▁ख़री	-7189
▁जैसल	-7190
▁टिका	-7191
▁धमकी	-7192
▁निधन	-7193
▁पढ़े	-7194
▁पहना	-7195
▁फतेह	-7196
▁संलग	-7197
▁हिला	-7198
यात्रा	-7199
्लूकोज	-7200
▁पड़ते	-7201
▁बस्ती	-7202
▁भंडार	-7203
▁भूभाग	-7204
▁रिलीज	-7205
▁वगैरह	-7206
▁सतर्क	-7207
▁सल्फर	-7208
▁सांसद	-7209
▁सार्थ	-7210
▁हैदरा	-7211
▁दरवाजे	-7212
▁निकलता	-7213
▁मत्स्य	-7214
▁यूनियन	-7215
▁लेखकों	-7216
▁चंद्रमा	-7217
▁वनस्पति	-7218
▁वाराणसी	-7219
▁सलाहकार	-7220
▁सेनापति	-7221
▁कहानियां	-7222
▁प्रोफेसर	-7223
▁संकल्पना	-7224
▁पुर्तगाली	-7225
12	-7226
य्	-7227
लु	-7228
ian	-7229
lim	-7230
कंप	-7231
ड़ो	-7232
ल्थ	-7233
़्न	-7234
ियस	-7235
ीदा	-7236
ेंज	-7237
▁44	-7238
▁an	-7239
▁बत	-7240
ंड़ल	-7241
आतंक	-7242
कक्ष	-7243
र्तक	-7244
समूह	-7245
स्तर	-7246
ोग्य	-7247
▁कने	-7248
▁कलम	-7249
▁गले	-7250
▁गिन	-7251
▁जॉन	-7252
▁धूप	-7253
▁नाज	-7254
▁पिर	-7255
▁सब्	-7256
तियां	-7257
पुरुष	-7258
ष्ठिर	-7259
संचार	-7260
▁(200	-7261
▁1857	-7262
▁1971	-7263
▁खाता	-7264
▁खेले	-7265
▁तेज़	-7266
▁थोडा	-7267
▁धागे	-7268
▁पाती	-7269
▁बनीं	-7270
▁मरने	-7271
▁युधि	-7272
▁संसऋ	-7273
▁सबको	-7274
▁सेशन	-7275
▁हमसे	-7276
▁अकेला	-7277
▁अधिका	-7278
▁अनुपम	-7279
▁आज्ञा	-7280
▁इस्ती	-7281
▁कारगर	-7282
▁ग्रुप	-7283
▁घटिया	-7284
▁जातीय	-7285
▁डालता	-7286
▁डालने	-7287
▁तितली	-7288
▁नोटिस	-7289
▁लड़ने	-7290
▁स्क्र	-7291
▁अन्तिम	-7292
▁आरएसएस	-7293
▁ऋषियों	-7294
▁ज्योति	-7295
▁प्रक्ष	-7296
▁शर्तों	-7297
▁सातवीं	-7298
▁सेलुलर	-7299
▁स्तरों	-7300
▁अधिरचना	-7301
▁किनारों	-7302
▁जैसलमेर	-7303
▁वामपंथी	-7304
▁संरक्षक	-7305
▁कार्यकार	-7306
▁चालुक़्य	-7307
▁तस्वीरों	-7308
▁पक्षियों	-7309
▁परिदृश्य	-7310
▁प्रतिरोध	-7311
▁रासायनिक	-7312
▁संयुक़्त	-7313
▁स्थापत्य	-7314
▁पृष्ठभूमि	-7315
▁प्रशिक्षित	-7316
▁वृद्धावस्था	-7317
CC	-7318
Na	-7319
up	-7320
ँह	-7321
ठ्	-7322
पय	-7323
हल	-7324
ext	-7325
खलन	-7326
चिक	-7327
चिव	-7328
दिव	-7329
नोल	-7330
पाट	-7331
सात	-7332
िटर	-7333
▁आह	-7334
▁ऐल	-7335
▁गत	-7336
▁यश	-7337
न्धी	-7338
वादा	-7339
▁kao	-7340
▁कोड	-7341
▁पाद	-7342
▁फूट	-7343
▁मंग	-7344
▁माद	-7345
▁सचे	-7346
▁हैस	-7347
ग्वेद	-7348
सल्लम	-7349
होंने	-7350
▁ख़ास	-7351
▁चारा	-7352
▁चोरी	-7353
▁बोला	-7354
▁माँग	-7355
▁लेखा	-7356
▁सदनॉ	-7357
▁सुल्	-7358
▁सृजन	-7359
▁स्टी	-7360
▁हरेक	-7361
ल्लाहु	-7362
श्वरीय	-7363
▁अपलोड	-7364
▁अलैहि	-7365
▁जीतने	-7366
▁दशकों	-7367
▁भ्रमण	-7368
▁मिसाल	-7369
▁रवाना	-7370
▁लंबाई	-7371
▁वरिष्	-7372
▁वापिस	-7373
▁विराम	-7374
▁सिंधु	-7375
▁स्वाम	-7376
▁हल्का	-7377
▁करवाना	-7378
▁पाएंगे	-7379
▁पेशेवर	-7380
▁बिहारी	-7381
▁भगवान्	-7382
▁मानसून	-7383
▁वसल्लम	-7384
▁समुचित	-7385
▁सियासी	-7386
▁स्नातक	-7387
निरपेक्ष	-7388
▁काठमांड	-7389
▁किताबों	-7390
▁मुलाकात	-7391
▁संक्रमण	-7392
▁धूम्रपान	-7393
▁निर्णायक	-7394
▁सम्बंधित	-7395
▁बुद्धिमान	-7396
▁भित्तिस्त	-7397
▁ब्रह्माण्ड	-7398
▁सल्लल्लाहु	-7399
▁मनोवैज्ञानिक	-7400
16	-7401
ue	-7402
ुश	-7403
१४	-7404
१५	-7405
▁O	-7406
ies	-7407
ंपा	-7408
इसे	-7409
कुण	-7410
गों	-7411
चों	-7412
टिक	-7413
ोगे	-7414
▁झो	-7415
▁लय	-7416
▁।”	-7417
गरों	-7418
डिंग	-7419
िताब	-7420
▁चिर	-7421
▁छान	-7422
▁नस्	-7423
▁पाय	-7424
▁पैग	-7425
▁लाए	-7426
▁शैव	-7427
▁सटी	-7428
▁सफर	-7429
▁हकी	-7430
▁हड़	-7431
पोर्ट	-7432
श्यों	-7433
सत्ता	-7434
िकाएं	-7435
▁1993	-7436
▁अम्ल	-7437
▁अहमद	-7438
▁ओजोन	-7439
▁कथित	-7440
▁करूँ	-7441
▁घिरा	-7442
▁जुडे	-7443
▁डालर	-7444
▁ढूंढ	-7445
▁ब्रे	-7446
▁राषऋ	-7447
▁लंका	-7448
▁लोहे	-7449
▁सिंग	-7450
▁सूरत	-7451
ड़ियां	-7452
▁ऋसमें	-7453
▁जमींद	-7454
▁द्रोण	-7455
▁पैलेस	-7456
▁मुफ्त	-7457
▁रंगीन	-7458
▁रुपये	-7459
▁श्रेय	-7460
▁हालात	-7461
ational	-7462
▁अर्जित	-7463
▁इलेक्ट	-7464
▁कानपुर	-7465
▁जागरूक	-7466
▁जीवाणु	-7467
▁दुर्लभ	-7468
▁नारायण	-7469
▁प्रेमी	-7470
▁महिलओं	-7471
▁मामूली	-7472
उन्होंने	-7473
▁आश्वस्त	-7474
▁गंभीरता	-7475
▁दर्शाया	-7476
▁मिश्रित	-7477
▁शिष्यों	-7478
▁शुरुवात	-7479
▁सैकड़ों	-7480
▁स्पर्धा	-7481
▁सॉल्वैंट	-7482
▁कांफ्रेंस	-7483
▁व्याख्यान	-7484
80	-7485
MS	-7486
ip	-7487
अब	-7488
उथ	-7489
उद	-7490
ens	-7491
ust	-7492
ंडे	-7493
किट	-7494
च्य	-7495
परक	-7496
पुट	-7497
माद	-7498
मीट	-7499
ैंक	-7500
▁we	-7501
▁ओह	-7502
▁घन	-7503
▁रै	-7504
▁सव	-7505
ंकृत	-7506
ड्डे	-7507
म्मू	-7508
यानक	-7509
र्पण	-7510
षदों	-7511
ृश्य	-7512
▁sao	-7513
▁कटा	-7514
▁डाई	-7515
▁फेर	-7516
▁शंक	-7517
▁शपथ	-7518
▁हमल	-7519
कानों	-7520
क्ष्य	-7521
दावली	-7522
योंकि	-7523
ेशनों	-7524
ोलनों	-7525
▁1935	-7526
▁घेरे	-7527
▁जाएँ	-7528
▁झुका	-7529
▁डाटा	-7530
▁देगी	-7531
▁दौरा	-7532
▁दौरे	-7533
▁नासा	-7534
▁नियत	-7535
▁पीढी	-7536
▁पेशा	-7537
▁बदलव	-7538
▁महास	-7539
▁रूचि	-7540
▁रूसी	-7541
▁लाइस	-7542
▁वादा	-7543
▁शाला	-7544
▁सराह	-7545
▁सूँघ	-7546
▁हुयी	-7547
▁होटल	-7548
▁२००३	-7549
वर्षीय	-7550
▁ईरानी	-7551
▁ख़राब	-7552
▁गेहूं	-7553
▁ज़रूर	-7554
▁रंगों	-7555
▁संभोग	-7556
▁सामुद	-7557
▁सुनना	-7558
जुर्वेद	-7559
▁कुशलता	-7560
▁गलियों	-7561
▁जोरदार	-7562
▁तिब्बत	-7563
▁निराशा	-7564
▁रोमांच	-7565
▁स्थलों	-7566
▁आयताकार	-7567
▁मध्यस्थ	-7568
▁मलेरिया	-7569
▁शब्दकोश	-7570
▁संकीर्ण	-7571
▁संवेदना	-7572
▁अनुसूचित	-7573
▁अन्तर्गत	-7574
▁अपेक्षित	-7575
▁आकांक्षा	-7576
▁आकाशगंगा	-7577
▁उत्तेजना	-7578
▁तस्वीरें	-7579
▁प्रतिमान	-7580
▁प्रांतों	-7581
▁न्यूयॉर्क	-7582
▁मूर्तियों	-7583
▁पूर्ववर्ती	-7584
PA	-7585
पै	-7586
ेस	-7587
किक	-7588
कें	-7589
ठहा	-7590
दशा	-7591
षेक	-7592
साम	-7593
ांस	-7594
ाजत	-7595
ेंच	-7596
्शा	-7597
▁6.	-7598
ंवों	-7599
अपने	-7600
ऊंगा	-7601
टकों	-7602
त्ती	-7603
ार्ज	-7604
▁अऑफ	-7605
▁अवर	-7606
▁एकज	-7607
▁एम्	-7608
▁ढोल	-7609
▁दूँ	-7610
▁नें	-7611
▁पान	-7612
▁बगी	-7613
▁बोझ	-7614
▁मर्	-7615
▁महज	-7616
▁हरि	-7617
लीवुड	-7618
▁1977	-7619
▁2003	-7620
▁अगला	-7621
▁अमृत	-7622
▁काबू	-7623
▁कारक	-7624
▁घायल	-7625
▁घृणा	-7626
▁चावल	-7627
▁जुटा	-7628
▁त्यो	-7629
▁बदतर	-7630
▁रोका	-7631
▁वैसी	-7632
▁हजरत	-7633
कल्पिक	-7634
क्सिको	-7635
बिरूनी	-7636
▁उपहार	-7637
▁कोलंब	-7638
▁क्रिस	-7639
▁चौड़ा	-7640
▁जम्मू	-7641
▁ढांचा	-7642
▁दीजिए	-7643
▁द्रवि	-7644
▁परवाह	-7645
▁विहार	-7646
▁सच्चे	-7647
▁अंपायर	-7648
▁अन्याय	-7649
▁असंतोष	-7650
▁एजेंसी	-7651
▁बंग्ला	-7652
▁पश्चात्	-7653
▁सुधारने	-7654
▁स्वदेशी	-7655
▁असामान्य	-7656
▁ग्रन्थों	-7657
▁प्रभावों	-7658
▁वैकल्पिक	-7659
▁नाइट्रोजन	-7660
▁युधिष्ठिर	-7661
▁विश्वसनीय	-7662
▁संभावनाओं	-7663
▁कार्यकारिणी	-7664
gl	-7665
if	-7666
sa	-7667
va	-7668
...	-7669
nit	-7670
इंट	-7671
खार	-7672
ग्न	-7673
दमी	-7674
ध्द	-7675
यार	-7676
लाप	-7677
लील	-7678
ोटा	-7679
दानी	-7680
पर्व	-7681
ब्बी	-7682
िम्म	-7683
्वित	-7684
▁उजा	-7685
▁उठे	-7686
▁कमल	-7687
▁कोण	-7688
▁क्य	-7689
▁गड़	-7690
▁बहि	-7691
▁राख	-7692
▁वेश	-7693
▁हरम	-7694
गुप्त	-7695
ड़ीसा	-7696
त्नों	-7697
नीतिक	-7698
▁1929	-7699
▁1946	-7700
▁इन्ह	-7701
▁उष्म	-7702
▁कैसी	-7703
▁परमा	-7704
▁लगीं	-7705
▁वरन्	-7706
▁विधा	-7707
▁सभ्य	-7708
▁सिरे	-7709
▁हरिव	-7710
▁अंकित	-7711
▁अण्डे	-7712
▁अवमान	-7713
▁अवरोध	-7714
▁एकजुट	-7715
▁क्रीज	-7716
▁क्लास	-7717
▁नाराज	-7718
▁बदलता	-7719
▁बदलती	-7720
▁बोलते	-7721
▁भाग्य	-7722
▁वयस्क	-7723
▁वेस्ट	-7724
▁शान्त	-7725
▁संभवत	-7726
▁स्खलन	-7727
▁हल्के	-7728
निर्माण	-7729
विश्वास	-7730
▁ऋग्वेद	-7731
▁खिलड़ी	-7732
▁दिखाता	-7733
▁दिखाते	-7734
▁निपटने	-7735
▁पहलुओं	-7736
▁मंजूरी	-7737
▁लम्बाई	-7738
▁अल्पसंख	-7739
▁अस्पष्ट	-7740
▁इंड़िया	-7741
▁कूल्हों	-7742
▁परिश्रम	-7743
▁रामचरित	-7744
▁विलक्षण	-7745
▁अहमदाबाद	-7746
▁एसोसिएशन	-7747
▁महाकाव्य	-7748
▁केन्द्रित	-7749
▁मूर्तियां	-7750
▁देशवासियों	-7751
▁सर्वसाधारण	-7752
▁साहित्यकार	-7753
▁सॉफ़्टवेयर	-7754
to	-7755
आम	-7756
ऋत	-7757
चु	-7758
फन	-7759
बऋ	-7760
१८	-7761
iss	-7762
ंचल	-7763
ग़ल	-7764
गाव	-7765
ताप	-7766
प्प	-7767
भाई	-7768
शिप	-7769
सूर	-7770
्टे	-7771
१९७	-7772
▁ik	-7773
▁ण्	-7774
न्ग्	-7775
न्ती	-7776
मानी	-7777
र्मी	-7778
ाजनक	-7779
▁कम्	-7780
▁घोर	-7781
▁दां	-7782
▁दाह	-7783
▁नास	-7784
▁मशह	-7785
▁शब्	-7786
न्धान	-7787
मुक्त	-7788
▁1928	-7789
▁1960	-7790
▁1990	-7791
▁अवधी	-7792
▁आर्ट	-7793
▁उष्ण	-7794
▁कारन	-7795
▁ग़लत	-7796
▁पीछा	-7797
▁माया	-7798
▁वीणा	-7799
▁सजीव	-7800
▁सहूल	-7801
▁सूरी	-7802
ospher	-7803
▁चिंतन	-7804
▁जिनको	-7805
▁टकराव	-7806
▁तेज़ी	-7807
▁पाश्च	-7808
▁मूलतः	-7809
▁मोक्ष	-7810
▁स्नेह	-7811
▁आनलाइन	-7812
▁उत्सुक	-7813
▁उन्नयन	-7814
▁उपासना	-7815
▁कीजिये	-7816
▁गरीबों	-7817
▁टुकड़े	-7818
▁दिवसीय	-7819
▁पूर्वा	-7820
▁महावीर	-7821
▁युवाओं	-7822
▁शेयरों	-7823
▁सुनाया	-7824
▁आंकड़ों	-7825
▁ईश्वरीय	-7826
▁गुरुदेव	-7827
▁पत्रकार	-7828
▁बीकानेर	-7829
▁संतानों	-7830
▁समृद्धि	-7831
▁उत्साहित	-7832
▁कार्यपाल	-7833
▁तुम्हारा	-7834
▁नियुक़्त	-7835
▁प्रवाहित	-7836
▁प्रसारित	-7837
▁लड़कियों	-7838
▁वर्गीकृत	-7839
▁वस्तुतया	-7840
▁वेदव्यास	-7841
▁रेगिस्तान	-7842
▁संभावनाएं	-7843
▁ट्रिब्यूनल	-7844
▁राष्ट्रवाद	-7845
.7	-7846
2.	-7847
pr	-7848
धक	-7849
लल	-7850
षक	-7851
ber	-7852
▁	-7853
ा	-7854
क	-7855
र	-7856
े	-7857
्	-7858
स	-7859
न	-7860
ि	-7861
त	-7862
ं	-7863
ह	-7864
ी	-7865
म	-7866
य	-7867
ो	-7868
प	-7869
ल	-7870
व	-7871
द	-7872
ज	-7873
ै	-7874
ब	-7875
ग	-7876
ु	-7877
अ	-7878
श	-7879
भ	-7880
च	-7881
.	-7882
थ	-7883
ए	-7884
ू	-7885
उ	-7886
ट	-7887
ध	-7888
ष	-7889
,	-7890
आ	-7891
इ	-7892
औ	-7893
ड	-7894
़	-7895
ख	-7896
ण	-7897
।	-7898
-	-7899
फ	-7900
ई	-7901
छ	-7902
ृ	-7903
)	-7904
(	-7905
a	-7906
ौ	-7907
1	-7908
ँ	-7909
ओ	-7910
e	-7911
0	-7912
घ	-7913
ठ	-7914
ऋ	-7915
i	-7916
o	-7917
ढ	-7918
n	-7919
9	-7920
ऊ	-7921
t	-7922
r	-7923
झ	-7924
2	-7925
'	-7926
?	-7927
०	-7928
s	-7929
ऐ	-7930
ॉ	-7931
:	-7932
१	-7933
3	-7934
5	-7935
l	-7936
4	-7937
8	-7938
|	-7939
6	-7940
h	-7941
7	-7942
c	-7943
ञ	-7944
d	-7945
m	-7946
२	-7947
९	-7948
u	-7949
ः	-7950
p	-7951
”	-7952
५	-7953
g	-7954
Z	-7955
y	-7956
k	-7957
“	-7958
८	-7959
३	-7960
६	-7961
f	-7962
b	-7963
v	-7964
७	-7965
ऑ	-7966
M	-7967
S	-7968
४	-7969
A	-7970
I	-7971
w	-7972
C	-7973
/	-7974
;	-7975
T	-7976
O	-7977
P	-7978
☻	-7979
L	-7980
%	-7981
ॊ	-7982
R	-7983
N	-7984
B	-7985
E	-7986
]	-7987
[	-7988
D	-7989
G	-7990
>	-7991
x	-7992
H	-7993
!	-7994
ङ	-7995
U	-7996
